[PAD]
[UNK]
[CLS]
[SEP]
[MASK]
-
.
/
0
1
2
3
4
5
6
7
8
9
:
_
a
b
c
d
e
f
g
h
i
j
k
l
m
n
o
p
q
r
s
t
u
v
w
x
y
z
##f
##b
##d
##r
##s
##e
##n
##i
##a
##x
##y
##l
##h
##q
##o
##k
##t
##v
##w
##u
##j
##m
##g
##7
##z
##c
##4
##6
##5
##2
##p
##0
##8
##3
##1
##9
##om
com
##in
##an
##er
##et
##en
##al
##or
##ar
##at
##ic
##on
##es
net
##is
##la
##ed
ru
##rg
##it
##iz
org
##as
in
##ch
cn
##il
##os
##us
##el
##ab
##ys
##em
##ut
##fo
##av
##ag
##am
##ing
biz
##le
##ur
##ol
##aw
##de
##ist
##re
##ad
##ent
##ul
##un
##op
##ik
##ep
info
##ix
##ho
##ly
##ess
co
##ion
##og
##id
##ky
##for
##ob
##ow
##anc
##up
##ard
##ac
##ens
##qo
##if
##ov
##ric
##ot
##ec
##rat
##ap
##af
##ine
##ical
##ir
##est
##im
##uc
##alist
##od
##ig
##st
##iv
##lu
##yp
##eq
##ew
##az
##eh
##bl
##ox
##uv
##art
de
##uf
##ma
##hr
##ian
##eb
##yl
##yd
##oh
##ax
##yx
##kb
##aj
##oc
##yw
##um
##dl
##ml
##uw
##ip
##ex
uk
##rs
##mg
##bi
##of
##ity
##ett
##ks
##ro
##wy
##net
##ire
##ts
##ins
##ia
##ud
##ier
##th
##tr
##eg
##ina
##tion
##ers
th
##ak
##lef
##ns
##and
##ay
##ib
##att
##ug
##cent
##oss
##olog
##form
##ok
##ub
jp
##fan
br
##ev
##tom
##dev
##anb
##ss
##ness
##enh
##aro
##oph
eu
##pr
##lav
##ef
##ds
##ysag
##inal
##obb
##laz
##bul
##aven
##eder
##ifg
##bik
cc
##lah
##less
##asil
##orc
##ality
##ined
##ysb
##itis
##asur
##zad
##erep
##kyc
##ening
##atform
##qok
##kyf
##etting
##anced
##chon
##uwb
##zaw
##ardens
##ajan
##ikat
##ypla
##rator
##etus
##hoos
##unal
##chus
##idab
##dlin
##onian
##ologist
##errat
##ically
##ancor
##ossom
##allu
##edeh
##avox
##deaf
##centric
##blossom
##ellef
##uteq
##uvuc
##ixuf
##avaw
##alistic
##laab
##hrine
##riction
##entalist
##lessv
##erwy
##emitis
##ysical
##ydrator
##ieraw
##ywobb
##irekb
##lyhoos
##upblossom
##ensina
##ylixuf
##mgaven
##enhanced
##aroqok
##ysagp
##lazaroqok
##bikerep
##asuredeh
##atformalistic
##yplaywobb
##etusul
##chuslazaroqok
##idablyhoos
##ellefriction
##emitismgaven
##ydratorysagp
##upblossomylixuf
##asuredehydratorysagp
##atformalisticirekb
##idablyhoosieraw
##ellefrictionlessv
##emitismgavenuteq
##izuwb
##fordlin
##qozaw
##devonian
##lavetusul
##lahavaw
##ettingk
##chonut
##ardenslavetusul
##ajanunal
##ikathrine
##ologistbikerep
##erratically
##allulahavaw
##laabettingk
##ensinaix
##enhancedysb
##devonianizuwb
##ikathrinezad
##ologistbikerepil
##erraticallyqozaw
##fanchonut
##entalistfanchonut
##abard
##artbul
##netavox
##fordlinnetavox
##artbulkyf
##atanb
##asildeaf
##eninguvuc
##asildeafeninguvuc
##azyx
##ictom
##inskyc
##atteder
##inalcentric
##erwyatanb
##inskycatteder
##inalcentricem
##inskycattederifg
##ohax
##bioph
##inedazyx
##abardinedazyx
##ancorml
##estness
##ysicalohax
##biophysicalohax
##estnessbiophysicalohax
##alitydevonianizuwb
##iq
##ww
##iologistbikerepil
##orcajanunal
##amentalistfanchonut
##ererwyatanb
##agabardinedazyx
##yc
##yz
##anerraticallyqozaw
##owupblossomylixuf
##ek
ch
##du
##oy
##epictom
tr
##leasuredehydratorysagp
##sp
##sh
##iw
pw
##ah
fr
##men
##pp
##machuslazaroqok
##sn
##ij
##qb
##nl
##ih
gov
st
##vinskycattederifg
pr
##pl
##ey
##cc
pl
me
##rsensinaix
##tallulahavaw
it
##ms
##ux
##ff
##ps
su
##ht
us
##yb
##ld
##rasildeafeninguvuc
##uk
##ct
##ost
##yn
##xx
##co
##mn
##qh
##partbulkyf
##jj
nl
##byplaywobb
##cr
##cl
##ph
##ym
##br
##io
##ter
##yg
##yt
##ej
##bs
##cs
##qq
##kj
##cd
##ls
##ang
edu
##ws
##kn
##yf
##uj
##ech
##gs
##oj
##gf
##hs
##vv
##kl
##nn
##qs
##mm
##yr
ar
##gr
##ort
##cb
##cy
##tt
##gl
xyz
sh
al
##uh
##ews
##ie
##yh
##ation
##dd
##yv
sp
##qr
##gn
##gh
##js
##ea
ir
au
##kh
##bb
##qu
##fr
##kt
##88
##dr
##mp
##xs
##wh
##wn
##ai
##ez
##kr
##qn
##yj
##qp
##our
##uz
##fs
##vs
gr
##llaabettingk
##cn
es
##oo
##kp
##qf
##qj
##all
##gg
##wv
##xp
##11
ca
##ue
##wr
tv
##oz
##ce
##dn
##mb
##fl
##iy
##wx
an
##mj
##mr
##ge
##mt
##cj
##qx
##qv
##ant
##wp
##dt
##kk
##mh
##gj
##ark
##wt
ac
##ind
##onl
##mf
##ql
##kv
##ial
tw
##24
##ell
##dv
##qt
##cp
##zs
##ast
##mv
##cf
##dh
vn
##gt
##xh
##pt
##sk
##wj
##uy
##kf
##df
##ide
##db
##erv
cl
##gb
##wf
##xt
dd
##cv
##gv
##ies
##gp
se
##77
##ck
##wb
##gx
##wor
##12
##dp
##55
##eal
un
##ou
##wl
##ail
##66
##dj
##ee
##mx
##cx
io
##00
##ain
##pet
##ans
##kx
##dx
##bj
##bo
##online
##hh
##33
##ert
www
##tl
##uq
##aq
##tv
##lub
##fv
##nv
##nr
##oya
##are
##ite
##yk
##44
##ive
##gu
##dm
kr
##nt
##zh
##out
##ugk
##yq
##ll
##com
##bv
##ish
##22
##hola
##jr
##me
##holapet
##ugkeq
ph
##ear
cr
##fox
##nh
##dc
##ii
##36
##np
onl
##zz
dr
##nj
##ill
##wg
cz
##ons
go
ua
##ore
##fj
##end
##18
##ao
##ool
##und
am
##ass
##ont
##xj
bl
##ft
##ack
##nb
##cu
##ank
##cg
##ect
##qm
##16
##xv
##xl
##fb
##rr
##ics
##qbex
##kd
##ash
##int
ddns
##gd
##zj
##yy
##fp
##mao
##cm
##lt
##qw
##ci
xn
##bt
##kw
##iwcy
##iwcymao
##ansn
as
##ra
##go
##fh
##bh
##cw
##78
en
##dw
##gw
##jv
##ansnan
##fx
##fn
##oft
##km
##15
##aa
web
##ate
##34
##14
##ors
##bp
##xr
##mw
at
##qz
be
##ka
##cz
##orn
##vr
##17
##hp
##kg
##13
##sr
##kz
##ult
##ace
online
##ice
##ital
##tp
##hl
##ne
##qd
##md
or
##mz
top
##one
##56
##ong
##lo
my
##age
##bn
##ca
##99
##roup
##jt
##jp
ro
##app
##use
##vi
##qg
##23
ga
##ame
id
##ign
##au
##21
##jh
##ach
##mo
##dz
is
##qy
##vp
##iu
##eo
##vt
##qk
##ight
##ath
##edia
##58
##ars
##ust
##hot
##my
##ets
##bx
##jx
##ick
##man
##vn
ws
##gz
##lp
##we
##wd
##ink
##bu
##bf
##ich
##wz
##28
sk
##ealth
hu
##bc
##48
##jn
##kc
##mc
##vh
##erg
##uu
##76
club
##dg
##38
##26
##ure
##xn
##zt
wor
##zp
##jl
##da
##bit
fre
##25
##unt
##do
##zl
##qe
fl
pt
##35
##els
##act
##wo
##ku
##74
##20
##fg
pro
##ance
sm
##jb
##fm
##zr
ex
##iugkeq
##air
##68
##ke
##arm
##ko
##con
##vl
##pn
##he
mx
im
##qc
##54
##ry
##zx
##yst
##ile
##news
##ock
##sl
##27
##po
##ings
##wm
##ver
##be
##px
##31
##ye
##hx
##eng
##vj
##ife
##bd
##ads
##37
cf
##hn
##iss
##ale
##ods
el
##zn
##fc
##ond
##fe
##vx
##51
##46
sc
##gm
##ann
##esh
##hood
##ae
##uo
tech
hr
wh
##achuslazaroqok
mar
bo
for
##fz
##ui
##fw
##67
on
##let
##port
##bg
##agl
##dy
op
##47
ms
##ki
##lr
nt
##57
##irk
con
nz
##inc
##arket
##10
gl
##als
##di
##bm
##ua
no
##oud
##ba
il
##urs
##web
##by
##32
##amp
##zv
##to
##ames
##xw
##kq
##1r
##ory
##ern
qu
##bw
##etr
aut
lt
##mq
##sc
##1t
##gc
##ya
##65
##pv
ad
##lh
##yo
the
##ome
ed
##nx
em
##45
##fd
##iana
##bz
ap
##86
##ewl
app
##erm
med
##jz
##1s
##1p
zh
##blog
##dsholapet
##oq
##anar
rr
##ica
##orts
cs
##ions
##lx
##vf
##ecyc
to
##wa
##dk
##1h
inter
##2p
##87
##rost
##ei
##64
##ord
##jf
##wk
##2r
##yu
##na
##mu
##3r
##2h
##utsk
##land
##gk
##dq
##nf
##ivett
##ri
za
##irkutsk
##hoodivett
##ianaqh
##hoodivettewl
##lefrost
##bitecyc
##lefrostbitecyc
##lefrostbitecycz
##uiwcymao
##ionirkutsk
##ionirkutskagl
##2t
##ung
##cq
ag
##enc
##ats
##ber
##2s
##3s
##1x
##1v
##no
##wq
##84
##esign
##ino
mon
##1l
##fa
tt
##85
##ment
##igital
nr
dk
##3t
ht
##bk
##ng
##bq
##str
##erc
##ery
##press
##ade
##wc
##75
##1j
##atch
##pj
new
##xg
##mk
car
##xf
##ream
##anarianaqh
bj
##lj
##chool
##mi
##2v
##ith
az
##1n
##3h
space
##work
##off
##2z
bt
##ild
ev
os
##obal
##oth
##avel
##eap
##esp
##xz
##lass
ss
##lv
##fi
jr
##its
##eu
##eth
##erionirkutskagl
news
##3p
##ime
ip
##semitismgavenuteq
hk
##sikathrinezad
##hv
##gq
vi
##satformalisticirekb
sw
##i4
gs
##hj
##a4
lv
##usic
np
##sagabardinedazyx
##i6
##3z
##i7
##1z
##rv
##oll
##19
##ush
pp
##mag
##rp
sup
##1f
so
##ny
##olut
##ogr
tk
##3v
##2j
##osh
best
##fq
##anad
##3j
dt
sg
##5t
rt
##nz
##a7
##xm
##a6
##8t
mo
re
##old
all
hp
fi
##lay
##1b
##xb
##4t
##xd
##nm
##3l
##rh
##gy
##rt
##2b
##4s
##ary
gre
bh
mob
ne
##2l
##fk
##irect
##a5
##i5
##own
tj
##ien
min
##fy
##iness
##las
dh
nh
vv
##pe
hh
##ari
##nw
##xy
##ood
##7t
##rb
##ero
##8s
##igh
gu
av
##xc
vt
##8h
##gi
##rj
shop
rp
##alt
##ata
dp
##3d
##ents
##xq
##u6
##lin
##eys
##err
ec
##forum
##itt
##7s
sa
le
##c4
dv
##olle
##lab
xt
##2n
##rep
##world
par
dis
ft
##lam
##5s
##aph
##5p
##orr
nv
##les
##jq
##1d
##elp
##fu
xp
jt
rh
site
##4p
lh
##c6
##ilm
pe
##5h
##3x
##ook
bp
##ga
##orp
mag
##8p
ge
##2x
jj
tp
nj
##oe
##7p
##inter
##8v
ma
##4h
##eam
ks
world
ll
##ubl
##aut
##ext
##ator
pv
##atr
##ids
vr
red
##nc
##qi
xh
##6s
##ence
bz
##8r
serv
fh
##ater
##8z
##nd
lp
##inn
art
off
##7h
dj
##group
##2d
##usiness
jh
##7z
##5v
##anet
fj
##7v
##ias
vp
rv
##qa
##ips
bu
##ama
bv
##4z
##8j
blog
##2f
##pan
air
##5r
##how
##3b
##usa
dl
dz
##6v
##6t
##ueoya
fp
##xk
hn
hot
##6p
##5j
lr
##1g
##ele
##4v
fv
##1m
##ual
##eric
kz
##4r
jv
##3n
##ices
##yi
bb
##5z
nn
##ower
##osp
##enn
##adem
vh
##ott
##6r
##odsholapet
##ational
##ams
##oad
##mar
##alk
##fre
##7r
rj
##1k
##dep
hv
##7l
##ana
##shop
we
eg
##1c
##ise
##2m
##car
##4l
##8l
la
##4j
ps
qs
##1w
##ios
get
##iet
js
xr
tn
##3f
##6z
ak
rad
##6h
##med
##ase
##earch
pol
zt
hz
vis
##info
gen
hx
ys
zz
##arn
##imes
xv
tl
hl
##erb
##42
rs
##ike
er
ie
##udio
sim
##jw
##aster
ind
##5l
ab
##ha
eur
##43
##53
##obs
tz
##ism
##ium
##u8
##nk
##52
##nq
ic
##ement
##pa
##eoya
##res
##za
##eed
gam
tel
##6j
##plefrostbitecycz
##per
##1q
##aft
##4x
##63
##uss
zj
##ict
##elt
xj
jx
pj
vl
sch
##vo
px
##store
##7j
et
##83
name
##2g
##ube
sl
##ooks
##wu
##2c
##73
man
##azine
fx
##6l
##icr
xx
##ems
sn
##zb
by
##ral
##ays
##7b
##ivers
##itch
vj
zv
rl
##sensinaix
##hop
##7x
##8b
##ware
bn
hb
##aff
##atur
##ift
##2w
xl
##1e
jl
##5x
xz
##adv
bit
##oday
ba
zr
##lac
##box
hj
##der
##pro
##agr
##house
##8x
##irt
##ufqbex
##iam
##2k
out
##ots
##ourn
##oi
##1y
##arch
##ove
##cdn
##4b
##esc
##ecr
cloud
pn
##epr
##outlet
pz
##oa
##5b
he
##ve
dn
wp
##able
ep
##ines
##arts
##mon
##arr
mp
cas
ke
##ates
##amil
##ere
fz
ho
lx
nb
nf
lj
met
jn
bd
do
##i8
##4f
##omen
ng
rz
dx
##6x
zp
col
vz
##2q
cent
lz
rx
res
##5f
ant
##iki
##3m
##1o
ug
##hd
fn
jz
lyg
nor
int
##ied
##3w
##useum
##4d
pa
##ows
##mer
pk
up
##3g
##erseys
##5n
##7n
##fin
##4n
bx
##vu
##6b
##1a
##olutions
ml
tx
##3c
##yle
##ope
ln
##met
##center
ul
nu
##bank
cm
##reat
##4u
soc
##ustr
##eco
##8f
##jk
##ject
##7f
##vw
ele
nx
zl
##ja
##vest
##media
##6n
##icial
##ara
mac
##82
##rec
yo
##vb
##ald
##uan
##3k
##8n
##ico
##eck
ff
##rl
##jm
##ull
##rit
##72
them
global
##ton
rb
##ecom
##ibr
##jg
##5d
##81
##over
fb
##4k
##zy
##jy
##ages
##each
rn
jb
lb
pb
##jc
hd
##wi
##4g
##era
##hoes
big
liv
##hm
##org
fun
hom
##4m
##ose
##thoodivettewl
goog
##ute
##7g
##41
##71
##5c
##zk
##eld
pf
rev
blu
##61
ok
##vg
##jd
##hu
##5m
gg
##62
##ards
cal
cheap
mod
vx
##ze
##je
##lep
##49
##rn
##zw
##6f
##lex
##7d
##7m
##4c
##5k
ha
##hq
##vm
mu
rf
exp
##60
##sb
##ownl
##4w
vb
##8d
smart
bi
db
tf
##hw
##ify
##8g
##mail
mov
sol
##view
aw
mm
##5g
##ecur
live
##7w
##edit
df
##zm
##4y
sal
ae
p1
tb
zn
##oduc
##india
##li
##4q
af
##30
##2y
health
bf
##hg
##mov
mot
##zf
##td
##6g
##law
##urn
##zg
##5q
jf
lin
##3q
##7k
canad
##se
##onn
##rq
##7c
di
pur
##6d
##oom
digital
##inst
om
##hk
##tech
zx
hf
##now
##emp
##ora
##aily
##vk
##vc
##eaut
max
##ju
trans
##uck
fil
##pc
##8m
##ology
##ations
fo
##che
##ands
kh
xb
inst
##health
##vy
##8w
##erd
mak
ut
##rx
chr
sun
port
##5w
##zd
##pw
##illa
##vd
##ena
##arketing
##afe
##arg
##ites
##qfqbex
real
##erf
##uts
##jo
##eme
gq
##ni
##7q
##enansnan
mt
##erp
##ipp
p1ai
##hb
##ji
bg
##ideo
cap
dom
##lm
##6m
##90
##asm
xf
##zc
##te
##way
##ani
lf
##book
##8q
##8c
ins
##ago
##lk
cat
mail
win
##plus
host
##atic
eas
##gen
and
pla
sub
##6w
##1u
##tx
city
##ita
##8k
##50
mk
si
##adsholapet
##5y
##anansnan
##6k
##pm
vf
##inh
##ores
##mun
##eph
##cloud
##ley
##vq
##edu
##mnansnan
mc
##2e
##ala
##ops
ot
ts
##ru
acc
##rm
gob
##ools
td
##erk
##6c
##zo
dat
##pq
##3y
##6q
##anh
##ball
##8e
um
##ree
mn
nov
ig
##hi
##works
##iiugkeq
##3o
##ownload
mil
##tw
##3e
cam
po
cg
ww
##edd
post
##va
##pk
##ty
##2a
zb
##4e
##5e
##pf
ld
##tm
##arb
##ags
##emen
##ave
##2o
jd
##pd
##tc
ai
pd
ek
##ask
stud
##irst
micr
##xu
##8y
##yfqbex
adv
##2u
zf
##food
hs
##7y
ta
##des
##ane
##nu
ah
rep
te
##ika
##min
fin
str
##ote
##pb
##888
book
sex
##iew
##ange
##ano
##rc
rd
##eds
ee
##eri
##ision
##ervices
des
ds
ns
travel
##amen
##aiugkeq
porn
##tf
##lc
##7e
jo
##ta
##py
ko
##pg
##ures
fd
##isc
##lg
##ournal
iq
##ln
##line
##tb
##apr
##5a
open
##80
##3a
theb
##ademy
cor
mg
nd
##i1
##7o
##5o
##39
vip
##dex
google
##3u
##wnansnan
sur
lo
og
##000
##undation
##zq
##89
##ider
##host
##4o
chin
ka
kw
xd
##4a
iw
ass
dig
west
##xe
##orld
xxx
##tg
pet
##club
tur
##mart
##7a
##oto
##rf
ly
soft
##opr
gw
##xo
##pi
##itr
##ival
##8a
##lad
##lw
ik
##oct
##lb
##ights
kg
##count
eb
##log
##ake
##amer
##reg
##6e
##6y
meg
##fer
##rk
##ada
##xi
sam
vd
##lf
log
##tj
##29
qq
your
##network
##iqu
sem
##aps
##rw
##iat
##arc
##onsult
##erver
forum
##national
##hc
##ervice
##hf
##oms
mult
##ille
##aper
##pany
ess
can
##zu
bs
##ael
##8o
##rd
##40
cb
##inem
##the
san
act
saf
##ima
rec
##ones
mich
##uff
##zi
##6o
##life
##5u
##imen
##59
##gfqbex
bel
##oles
ew
##tn
##egr
##dns
comp
ib
##tk
##lq
##ited
##rew
##sport
10
del
##ker
##isatformalisticirekb
##qeoya
oc
kn
not
##jerseys
dev
mas
##hy
##def
gm
gal
##exp
fs
##ialis
##unc
##umen
ow
vs
##onc
##ous
americ
free
##uru
##ental
##upp
##ius
eq
##i3
##6a
##ene
##foundation
##erson
##7u
##tu
##war
##ebr
##tions
##burg
gol
group
##ifox
webs
##imachuslazaroqok
##365
green
cle
cont
zd
##isagabardinedazyx
##ize
##ura
pre
ver
##acy
##ypt
mw
##apartbulkyf
fm
##outh
cu
gc
##onic
##ellaabettingk
##fow
cq
nik
reg
##asp
##isikathrinezad
##8u
##otr
##ales
##ique
business
vol
##acc
##earn
##ster
lab
##ork
##ona
##ysatformalisticirekb
##artn
uy
wg
cd
km
sq
##uit
##ksemitismgavenuteq
##arl
##games
##emes
##ado
##fil
##irsensinaix
##andb
sz
##isp
##i2
##reen
##ystems
##opartbulkyf
##ides
##ours
cw
cdn
ey
china
team
##labs
##ocal
nic
##69
80
ur
uc
##ida
##imp
kk
##ivinskycattederifg
##ysagabardinedazyx
uw
wm
##asagabardinedazyx
##star
thes
cit
mr
##irl
##123
##ublic
##guiwcymao
link
##cuiwcymao
lg
na
ck
ky
mys
ym
##ony
##ills
##enter
##ypartbulkyf
aq
pup
sil
##unn
##acks
kl
##ori
##ives
vo
yq
##xa
##udi
ls
sv
phot
qm
##6u
##amachuslazaroqok
##upartbulkyf
cp
##erl
design
val
qw
##aur
##arsensinaix
sky
##osatformalisticirekb
ser
##lash
##ksagabardinedazyx
hol
yg
##wfox
##cle
##anch
##eps
da
##wiugkeq
##idg
##isemitismgavenuteq
##iver
##guide
bab
gh
##iererwyatanb
##uns
##ipt
lk
##emachuslazaroqok
##ullaabettingk
##ipartbulkyf
sport
##hotel
##ini
mis
mam
puz
uq
##usatformalisticirekb
ki
rob
##ader
##usagabardinedazyx
##forc
##apt
##ursensinaix
##usemitismgavenuteq
##urt
##ocks
##geoya
##magazine
##osikathrinezad
##aco
##ibyplaywobb
sho
##eel
##usikathrinezad
##dec
##reet
##uvinskycattederifg
kj
##china
##kbyplaywobb
##ubyplaywobb
ol
##yllaabettingk
##qsikathrinezad
leg
media
sd
##mob
##illaabettingk
##abyplaywobb
##adr
##ape
##360
pum
##osc
##adio
##irasildeafeninguvuc
##max
##ency
##utallulahavaw
puj
wr
##opt
##inet
##otallulahavaw
##wood
iy
life
yy
yw
##edge
##evinskycattederifg
mat
##equ
##ileasuredehydratorysagp
gk
##ler
##asatformalisticirekb
##ysemitismgavenuteq
##ever
##pu
thec
##sd
##ading
##nect
##70
##etallulahavaw
##ili
##leg
if
##lag
##ucation
##road
##ashion
##urasildeafeninguvuc
sy
wo
##alc
##ergy
ber
##asikathrinezad
##qsemitismgavenuteq
ay
##iel
##ksikathrinezad
##qbyplaywobb
ef
##ource
mir
thep
##nik
##ato
##apan
##orsensinaix
##arasildeafeninguvuc
click
##arp
md
##elo
bet
##enet
arch
##direct
##afox
##uth
##vz
##enb
tim
##amb
##obyplaywobb
gt
##ific
qk
##ali
##asemitismgavenuteq
##review
qg
##ants
sx
##efr
##kuiwcymao
of
good
##oftware
mus
##dom
kc
##esatformalisticirekb
##ager
##academy
yk
visit
ih
##umm
##care
##itute
social
hal
##esagabardinedazyx
##itallulahavaw
##ept
##sv
##ustom
##avi
##ollege
lu
puv
##ollaabettingk
##hous
##qsagabardinedazyx
just
pc
##umb
lib
##abr
ct
##urg
##ger
##asa
##chr
##emb
cx
syn
##design
##ourc
sr
##music
##msemitismgavenuteq
wk
##ograph
gold
wq
##osemitismgavenuteq
##ypr
##ebyplaywobb
##ump
sci
##oon
iv
##sm
##any
over
##msagabardinedazyx
lov
##eleasuredehydratorysagp
kar
wa
##une
##ianerraticallyqozaw
bla
mq
one
##iac
##01
##isk
##utt
##roid
##orrent
##sw
##opp
##apps
##express
lif
##epl
##ersensinaix
sav
##ksatformalisticirekb
##tra
##msatformalisticirekb
fast
sel
##epartbulkyf
##iving
##aleasuredehydratorysagp
job
ra
uz
##ova
cy
##mark
##foot
tour
##kdsholapet
##79
##ati
##osagabardinedazyx
##aiq
##avinskycattederifg
##ovinskycattederifg
prof
##uzz
##sf
##ych
##esemitismgavenuteq
##ury
ci
cyb
ever
##tq
pay
##a1
fly
games
##ysikathrinezad
fit
ij
##hub
##ils
music
od
yu
yc
##val
##itor
##ota
oq
##urr
##ystem
cons
##atallulahavaw
qc
##eli
##travel
##par
##room
##olution
gy
dav
##esikathrinezad
##sports
ku
kin
wc
work
##orasildeafeninguvuc
##arden
##1i
##rev
##gsikathrinezad
official
20
dail
icu
ye
##add
##csagabardinedazyx
##hotels
##100
##ingt
dc
rem
##orm
##aya
##sj
mobi
dog
mer
fox
##econ
kq
##eek
##ims
##tron
ub
##hz
##inf
##igns
##iao
##cllaabettingk
##fowupblossomylixuf
##allaabettingk
##lev
thed
##echn
test
##hom
##market
##ete
anim
##free
##ycl
ben
gd
##iter
je
son
##ition
##img
##ybyplaywobb
##777
ads
yt
##pz
##leb
##ode
##change
##itchen
land
oy
pal
##ison
##arth
techn
est
non
per
##olf
##estival
super
ax
ce
food
law
##09
##acion
north
imp
ox
puf
##q4
##enews
##depictom
bar
han
mi
##oma
##iva
##csikathrinezad
##glish
bon
mid
##cher
camp
film
mal
tu
##etn
eh
##oro
network
ao
cel
##omachuslazaroqok
##cho
##lamentalistfanchonut
buy
fut
##omp
##ese
du
don
##col
##wsemitismgavenuteq
qy
##miq
##qsatformalisticirekb
##u4
##produc
##ather
99
hon
sb
christ
##c1
##esk
kam
##tz
how
dec
fe
##city
##5i
##global
ultr
bid
##anz
##abl
theg
##inder
ob
##deb
her
nav
##2i
##ols
##olic
##q7
##ito
##opert
thew
##pla
123
ov
##uls
##del
##emo
tor
##q6
##oci
##wsikathrinezad
##gsatformalisticirekb
ham
##ti
##insur
##kllaabettingk
search
##chools
##ford
51
gad
##museum
##obe
##wsatformalisticirekb
hotel
cialis
##emon
stream
##hent
##m8
##wsagabardinedazyx
pop
##ety
##stallulahavaw
li
mad
##ient
##q1
happ
natur
sen
uu
##key
onlin
##yeoya
##anada
##eta
star
##affic
bank
first
##anj
##anal
fa
ve
##u1
##invest
##chi
prom
bc
cos
inf
##unk
##obr
##coin
bre
joh
##sx
##erasildeafeninguvuc
##emag
##ogo
##ette
vide
##w5
##lak
##ely
##ucc
##ugh
##howupblossomylixuf
##ecurity
michael
##alia
outlet
##forcajanunal
##day
##alb
##a2
##3i
##ior
##lz
##edr
##q8
##cas
##iny
##elle
##univers
##iang
##999
aj
pix
##u7
##unter
##msikathrinezad
##get
##urv
##api
##hrasildeafeninguvuc
alt
ann
class
gp
har
watch
##aint
national
sar
##iag
##wiq
##empl
##unch
##stud
##hrsensinaix
shar
##official
##lepictom
pan
##bar
##oman
##ister
##new
##post
##tsikathrinezad
start
direct
##real
##irls
##acker
creat
gz
ide
ros
##y4
##cam
market
##k4
##iff
19
ban
wil
ya
##sg
##q5
##mllaabettingk
##zsemitismgavenuteq
wy
##den
##w1
##mod
##ella
##utor
sit
##ienhancedysb
store
##csatformalisticirekb
opt
##opl
##gllaabettingk
##repictom
ther
##aining
yv
##zsatformalisticirekb
##osoft
##ird
##ebs
##u5
##icks
##vsatformalisticirekb
##rz
##learn
##k1
##m4
##asy
##aker
##gsemitismgavenuteq
under
gat
mb
vid
download
##mot
##7i
##c5
##iles
##estaur
dg
ej
mh
myc
##dsikathrinezad
qa
gf
jav
##iellefrictionlessv
##imm
##bllaabettingk
##nsagabardinedazyx
pi
div
haw
mom
oh
##ebo
##zsagabardinedazyx
tm
##d6
##iinalcentricem
##iiologistbikerepil
##qepictom
##z5
##asc
##institute
##xsemitismgavenuteq
asia
##ibrary
nc
##k5
##ssemitismgavenuteq
##her
##ario
##tsatformalisticirekb
##eiq
##ords
##olo
bal
##a8
##elf
auto
care
qr
scr
wind
yn
##w6
##gam
##ondon
##ban
##ula
##enr
##otes
##etter
gi
##a3
##oker
##fqbex
##y5
##q3
##c8
##itz
##aber
##ema
thef
##nsikathrinezad
##ible
king
inn
##dsemitismgavenuteq
##ission
##inj
##ups
##psagabardinedazyx
doc
spr
yx
##business
##eur
##k7
##ares
##isa
##akt
##gsagabardinedazyx
##fsemitismgavenuteq
##irtual
aa
##artners
hy
##fol
##idge
##oda
##vsagabardinedazyx
sf
##win
##u3
##c7
##istr
##ects
find
nam
pand
##fit
##b4
##qardenslavetusul
##qancorml
##qererwyatanb
##qleasuredehydratorysagp
##porn
##apl
gn
kon
wik
##igo
##rok
##jsemitismgavenuteq
##loud
mel
sec
tab
##f6
##y8
##qinalcentricem
##qiologistbikerepil
##qrsensinaix
##k6
##watch
##zone
##biologistbikerepil
##eauty
got
##uter
##ira
##f4
##e8
##ingh
##uman
##ssikathrinezad
##spartbulkyf
##pllaabettingk
mobil
##f1
##ole
##eland
##agu
##rics
##vsikathrinezad
fac
##d4
##cap
##csemitismgavenuteq
sj
tom
##b8
##onet
##istory
##kyo
##uction
##dllaabettingk
##actory
bur
myp
power
##west
##m5
##izz
prim
##point
##y6
##yth
##u2
##mas
##g1
russ
##ious
##qorcajanunal
##qtallulahavaw
##enz
theh
##comp
##amily
jew
school
##d1
##ington
press
lev
##d5
##qidablyhoosieraw
##qalitydevonianizuwb
##qrasildeafeninguvuc
##aka
##prof
##board
eng
##k8
##w8
##olt
##trasildeafeninguvuc
prod
##annel
kp
learn
##e4
##iardenslavetusul
##iancorml
##z4
##z8
##cast
##edo
##ians
planet
dm
myf
wx
##kidablyhoosieraw
##kalitydevonianizuwb
##krasildeafeninguvuc
##g4
##eral
##amm
##untr
bm
mor
pu
##e7
##awa
##tsemitismgavenuteq
##jsatformalisticirekb
dream
ist
mv
qh
tal
##d3
##link
##nsemitismgavenuteq
##psikathrinezad
fot
ud
xs
##o6
##anews
##ating
##edg
##urch
##ified
##fanerraticallyqozaw
##eff
pin
##e1
##iestnessbiophysicalohax
##o1
##anp
##nsatformalisticirekb
agr
##fun
##arma
##agon
nat
roy
##b6
##iidablyhoosieraw
##ialitydevonianizuwb
##m1
##c3
##ench
sports
tot
##iamentalistfanchonut
##iowupblossomylixuf
##qestnessbiophysicalohax
##ends
##ydr
cop
ret
##d8
##ieg
##ection
radi
ez
kat
##y1
##edom
##xsagabardinedazyx
##fsikathrinezad
lat
##qenhancedysb
##qmachuslazaroqok
##w7
##corp
invest
##bsatformalisticirekb
##iya
##y7
##cel
##iner
##studio
##lug
##central
##jsikathrinezad
##xsikathrinezad
##eman
##upd
##dsagabardinedazyx
##ender
##o4
##c2
##rice
##otic
##rsagabardinedazyx
##code
##vsemitismgavenuteq
##eller
cre
gx
##week
##munity
map
##d7
##kfordlinnetavox
##kanerraticallyqozaw
##ense
##oco
##pres
##aowupblossomylixuf
##qellefrictionlessv
##uel
##eries
univers
cv
tak
##ais
##aamentalistfanchonut
##k3
##elop
##ami
##que
master
##park
##enk
##ehr
##iety
sant
##ful
##home
##g5
##z2
##edc
##ials
kt
##lim
##w2
##anma
##owl
##acr
apple
disc
les
mont
##g3
##game
##adi
##afil
##ubs
##america
##books
##e6
##qvinskycattederifg
##qllaabettingk
##ola
##kellefrictionlessv
##aku
simp
##eer
##ities
aqu
##yardenslavetusul
##yancorml
##yleasuredehydratorysagp
##ades
##occ
por
ry
##o5
##vent
##w4
##m6
##m3
##cheap
##abs
##assage
##international
##movies
00
ast
ou
sin
tre
##wllaabettingk
##z1
##jsagabardinedazyx
ix
imm
##f8
##bon
##wvinskycattederifg
##mat
##hsagabardinedazyx
##q2
##with
##m7
##z6
##aws
##ppartbulkyf
##x7
##w3
##uellefrictionlessv
##url
##ifi
##ekt
##bsikathrinezad
add
oo
##uererwyatanb
##hod
##zsikathrinezad
home
ni
uv
##you
##ule
##uenhancedysb
##umachuslazaroqok
##aza
##ishing
qp
qex
##f7
##osa
##olu
##ista
##una
##rsatformalisticirekb
##ofs
##uds
prem
dem
##m2
##z7
tc
##g7
##8i
##agra
##hsikathrinezad
##allery
asp
gaz
hell
##uorcajanunal
##enp
##eweb
##mak
alb
qe
##iance
##uardenslavetusul
##uancorml
##uepictom
##uleasuredehydratorysagp
##cenhancedysb
##cmachuslazaroqok
inc
##ipr
stor
esp
game
kv
##f5
##b5
##x4
##eno
##company
##erh
##edi
##ility
##imo
##iger
plus
viagr
fc
##98
##aris
##onsulting
24
##ead
##iepictom
##kardenslavetusul
##kancorml
##kleasuredehydratorysagp
##iro
##tsagabardinedazyx
##fsatformalisticirekb
##aenhancedysb
##eto
##ipl
##hsemitismgavenuteq
project
qn
uf
##kmen
##wererwyatanb
##ufordlinnetavox
##uestnessbiophysicalohax
##uanerraticallyqozaw
##morcajanunal
##mtallulahavaw
##corcajanunal
##ctallulahavaw
##omb
##ebook
##ocs
##onlin
gar
ray
##e5
##uch
##arms
##ssatformalisticirekb
myb
wt
##uto
hel
##wfordlinnetavox
##wanerraticallyqozaw
##cardenslavetusul
##cancorml
##cleasuredehydratorysagp
##iant
##ums
##nllaabettingk
##ouch
100
cj
ji
pat
##qmen
##igr
##rsemitismgavenuteq
hyp
qv
viv
##b1
##g8
##ocr
amaz
qt
##y3
##read
##entr
##oga
stat
dan
##b3
##aepictom
##asi
##ilt
##igs
##psatformalisticirekb
##xxx
##hsatformalisticirekb
iu
merc
##qfordlinnetavox
##qanerraticallyqozaw
##marketing
##inb
##eter
##orth
website
mem
pic
##qamentalistfanchonut
##qowupblossomylixuf
##qpartbulkyf
##edb
##rsikathrinezad
kal
part
##kinalcentricem
##kiologistbikerepil
##krsensinaix
##uiologistbikerepil
##omo
thel
##iba
##eshop
dns
god
our
##f2
##d2
##digital
##vers
##uidablyhoosieraw
##uinalcentricem
##ualitydevonianizuwb
##menhancedysb
##mmachuslazaroqok
##pay
##irs
##dsatformalisticirekb
##armac
help
yh
##ief
##x1
cod
custom
mah
wu
##f3
##istor
##lux
##azz
##ila
##iorcajanunal
##afordlinnetavox
##aanerraticallyqozaw
##list
##o7
##ody
##ofth
##roject
##cience
bay
cash
tun
##e2
##midablyhoosieraw
##mellefrictionlessv
##stream
##oxy
##prasildeafeninguvuc
##engine
macr
foot
astr
old
pg
##fac
##aererwyatanb
##malitydevonianizuwb
##mrasildeafeninguvuc
##4i
##chat
##ople
##ido
##irr
##ugs
##industr
adm
bas
emp
##kestnessbiophysicalohax
##cvinskycattederifg
##olar
##upon
##imb
##ibe
internet
pen
play
wel
##olesal
lux
##kererwyatanb
##uis
##energy
##ession
##enst
far
hc
ref
##uamentalistfanchonut
##uowupblossomylixuf
##journal
##mepictom
##edt
hg
sat
##x6
##kenhancedysb
##kmachuslazaroqok
##z3
##cinalcentricem
##ciologistbikerepil
##crsensinaix
##inks
##aby
##xsatformalisticirekb
##ments
portal
wv
##ainalcentricem
##aiologistbikerepil
##k2
##agement
##irm
##stat
##octor
iz
pm
qeg
tex
##ifordlinnetavox
##x8
##o8
##kamentalistfanchonut
##kowupblossomylixuf
##kpartbulkyf
##g6
##card
##ssagabardinedazyx
##print
##168
##connect
las
##wancorml
##opol
cur
den
uh
##y2
##qrs
##wardenslavetusul
##wleasuredehydratorysagp
##inger
##bsemitismgavenuteq
nom
pac
##b7
##hip
##cha
cool
##bsagabardinedazyx
grup
elec
##hor
##icon
##ingp
##uba
##ospital
cart
fg
ren
wal
##bal
##aidablyhoosieraw
##aalitydevonianizuwb
##ymen
##korcajanunal
##ktallulahavaw
##cor
##inp
##ancy
gv
myd
uo
##e3
##alph
##aba
##report
aws
cho
ton
urb
yr
##cfordlinnetavox
##canerraticallyqozaw
##elb
##uct
black
eo
kom
video
##ein
##last
##iks
##acom
##ofr
ang
aff
ia
next
##aestnessbiophysicalohax
##yepictom
##oint
##gfordlinnetavox
##ganerraticallyqozaw
##6i
##inic
##ecl
##stor
hit
##cus
##cmen
##ogs
##ship
##666
men
nw
##yvinskycattederifg
##j4
##gmen
##eda
##ovie
##psemitismgavenuteq
great
ask
ju
ny
xu
##ports
##comm
##hentic
bac
qx
##oererwyatanb
##widablyhoosieraw
##walitydevonianizuwb
##wrasildeafeninguvuc
##gar
##can
##trol
##oku
luc
##b2
##yamentalistfanchonut
##yowupblossomylixuf
##wbyplaywobb
##ginalcentricem
##giologistbikerepil
##grsensinaix
##cestnessbiophysicalohax
##cbyplaywobb
##owers
##rica
##ther
money
office
##insurance
writ
##film
##westnessbiophysicalohax
##mardenslavetusul
##mestnessbiophysicalohax
##mleasuredehydratorysagp
##mbyplaywobb
##g2
##fsagabardinedazyx
##views
49
blac
gor
light
yp
##data
##wepictom
##mfordlinnetavox
##mancorml
##manerraticallyqozaw
##gamentalistfanchonut
##gowupblossomylixuf
##gpartbulkyf
##ivo
##ociety
##lsatformalisticirekb
##build
##ography
##etv
##esa
##action
##ocial
##themes
##bout
##oun
##j6
##camentalistfanchonut
##cowupblossomylixuf
##cpartbulkyf
##foods
##ration
then
##anda
##eka
##icket
##forums
ash
##eak
##j8
##mom
##inos
##env
##idd
##ucks
##iga
##ocket
list
##iem
##o3
##wenhancedysb
##wmachuslazaroqok
##anr
##portal
colle
loc
wn
##yestnessbiophysicalohax
##o2
##j1
##cre
code
pres
##hoto
canadian
##j7
##omot
##apers
prot
##project
img
jm
ker
metr
##well
##mererwyatanb
##idas
##estr
brand
chat
radio
pos
wiki
xux
##yenhancedysb
##ymachuslazaroqok
##utr
##ires
lit
ter
torrent
wb
##gorcajanunal
##gtallulahavaw
##education
gb
##yorcajanunal
##ytallulahavaw
##j2
css
##bet
##daily
##v1
##winalcentricem
##wiologistbikerepil
##wrsensinaix
##cepictom
##edn
18
##lsagabardinedazyx
sab
sand
##kvinskycattederifg
##mmen
##ede
##ipe
##iph
caf
gan
today
##aus
##aellefrictionlessv
##ering
##oli
##odo
mf
##ble
##aardenslavetusul
##v6
##anm
##lap
##asia
##ume
##office
bir
kur
myt
qeb
tek
voc
##aancorml
##x5
##orb
##check
##ylo
canadago
##edding
bud
hac
lyv
pas
zo
##yererwyatanb
##ancial
##ecn
aer
lys
sig
tax
##efordlinnetavox
##eanerraticallyqozaw
##x2
##ener
##oni
##ident
##ego
##craft
medi
mang
wl
##sa
##eellefrictionlessv
##your
##v8
##arab
run
bil
box
hm
nex
##yidablyhoosieraw
##yfordlinnetavox
##yalitydevonianizuwb
##yanerraticallyqozaw
##yrasildeafeninguvuc
##ues
##upport
det
ea
wow
##ksh
##ideos
##ultur
bad
kev
qo
vc
##oardenslavetusul
##oancorml
##oamentalistfanchonut
##oowupblossomylixuf
##oleasuredehydratorysagp
##v2
##wellefrictionlessv
##master
##atl
##icl
##onb
coach
##ancer
##estore
arab
grand
center
##epp
##football
cab
qd
wi
##x3
##alog
##acing
mj
nm
set
secur
##gererwyatanb
##gepictom
##chem
##fot
##ijk
##ynews
py
vin
##kin
##minalcentricem
##miologistbikerepil
##mamentalistfanchonut
##mowupblossomylixuf
##mrsensinaix
##mpartbulkyf
##cellefrictionlessv
##eless
##odes
##planet
##lasses
##upply
gj
now
sof
south
yj
##dat
##ney
##v4
##ude
##play
##anl
##cht
##urnit
aud
dar
ii
mym
pq
##sy
##n8
##gbyplaywobb
##fort
spec
##webs
##advis
gac
mix
rw
vg
##wmen
##gestnessbiophysicalohax
##elect
##deal
12
ger
hand
sum
##aorcajanunal
##esb
##obo
imag
##estaurant
bk
uj
##arat
##ortal
read
mik
rent
wall
##enj
##agn
##ester
phil
oz
von
##sq
##kepictom
##wamentalistfanchonut
##wowupblossomylixuf
##wpartbulkyf
##erw
##elec
##ysh
##hof
##ovo
##odr
bro
east
qj
wf
##zorcajanunal
##ztallulahavaw
##lue
##ega
fund
roc
##vis
##91
##angu
international
its
lym
mic
mos
qeq
swe
##eererwyatanb
##nat
##ildr
##ava
##amber
##hou
jc
kid
mark
qi
shoes
xut
##light
##uild
##gidablyhoosieraw
##galitydevonianizuwb
##grasildeafeninguvuc
##onm
##uren
##ebe
##aha
##manager
##ogram
microsoft
atl
bol
sev
##n4
##kit
##omi
##ated
##actor
##2020
api
cir
kb
lex
##v7
##cererwyatanb
##onp
##ontent
kf
qb
##map
##9a
##atre
##lsemitismgavenuteq
rc
ue
war
##n2
##live
##help
##onr
##onh
##ilk
##aga
##agazine
flor
equ
ql
##so
##urf
##ular
##apa
##trans
hor
##oorcajanunal
##ints
##island
##edp
##hov
bul
lad
##n7
##zellefrictionlessv
##inar
##alp
##itar
##ulture
##mann
oak
pod
wood
##jobs
inform
##ily
##sth
##eworld
##fly
##eet
##eorcajanunal
##n5
##worcajanunal
##wtallulahavaw
##j5
##cidablyhoosieraw
##calitydevonianizuwb
##crasildeafeninguvuc
50
dyn
nas
rm
##n6
##trade
##ersey
usa
jk
kor
mab
##zidablyhoosieraw
##zalitydevonianizuwb
##zrasildeafeninguvuc
##anic
##enl
##alo
##eway
thet
##oke
##101
fashion
lyr
##fmen
##dem
##iend
##yellefrictionlessv
##gvinskycattederifg
indi
##yss
american
bw
dot
fab
oj
xub
##han
##oinalcentricem
##oestnessbiophysicalohax
##oiologistbikerepil
##enf
##atv
##itas
##obl
##uge
audi
myh
som
##wit
##ction
##adt
##aki
energ
##othing
##auto
oe
tar
##bererwyatanb
##king
##genhancedysb
##gmachuslazaroqok
##inform
##ador
##roy
speed
bik
##ofordlinnetavox
##oanerraticallyqozaw
##ville
##class
##ici
##osting
pass
xuq
##bot
##job
##cat
##esi
##armacy
lam
may
nar
##v3
##asn
##eca
traffic
hub
lm
sir
##famentalistfanchonut
##fpartbulkyf
##buy
##xidablyhoosieraw
##xalitydevonianizuwb
##xrasildeafeninguvuc
##mvinskycattederifg
##inr
##aweb
##obile
##rick
oa
pdf
xg
##n1
##p6
##otter
##estate
##round
this
android
card
fire
k12
rq
ux
##band
##iti
##uro
##olid
##ovies
##ecas
##ijs
##ytics
##333
##ustralia
yl
##eenhancedysb
##eestnessbiophysicalohax
##eepictom
##zenhancedysb
##zmachuslazaroqok
##onf
##osk
##emed
##aca
##imat
##ypl
famil
mill
xud
yi
##wall
##isi
##agen
##psr
##247
##untain
ent
park
rel
well
##l6
##aver
##obi
##track
##eau
##ellow
data
japan
ze
##fidablyhoosieraw
##falitydevonianizuwb
##frasildeafeninguvuc
##xfordlinnetavox
##xanerraticallyqozaw
##mus
##eline
##amo
##ibs
##iber
crypt
indian
central
##merce
env
hw
mz
##xellefrictionlessv
##anim
##aders
##afr
##roj
##eye
##quest
express
azure
gig
gah
hap
jun
vir
veg
yb
##ains
##yinalcentricem
##yiologistbikerepil
##yrsensinaix
##ysp
hq
ken
lon
##bmen
##n3
##water
tru
myl
##best
##bardenslavetusul
##bancorml
##bleasuredehydratorysagp
##dinalcentricem
##diologistbikerepil
##drsensinaix
##zepictom
##ref
priv
jg
yf
##zestnessbiophysicalohax
##zbyplaywobb
##ono
##edes
##acs
##spot
prop
bang
long
rg
##zardenslavetusul
##zancorml
##zleasuredehydratorysagp
##omes
##inth
##ason
##usion
##awn
##hout
##style
13
cast
pag
sos
vit
wis
##fepictom
##cal
##rex
##lsikathrinezad
linux
##expert
berlin
pap
##bamentalistfanchonut
##bowupblossomylixuf
##bpartbulkyf
##zererwyatanb
##08
##click
##789
event
europe
elect
cin
fan
fort
mart
##dorcajanunal
##dtallulahavaw
##p4
##p1
trade
##ouis
##order
activ
##learning
sud
##mos
##eni
##ument
##exper
##kss
##andr
##ologies
##door
mass
wd
##ner
##l4
##v5
##gardenslavetusul
##gleasuredehydratorysagp
##odel
char
##spl
educ
color
dim
emb
maj
qet
zs
##eamentalistfanchonut
##eowupblossomylixuf
##gancorml
##orks
##ander
##ybr
##andbags
cid
fu
flash
lac
vk
##finalcentricem
##fiologistbikerepil
##frsensinaix
##oul
##oellefrictionlessv
##kids
##vert
##j3
##omy
##emn
##email
##street
##eve
chic
mind
tam
vu
##iot
##kor
##video
##zfordlinnetavox
##zanerraticallyqozaw
##05
##ogu
##anco
##umer
##bia
##prov
trip
day
moj
public
##borcajanunal
##btallulahavaw
##nmen
##utl
##owns
##mach
##ywh
##plan
##writ
##research
##products
bod
eco
qed
va
xjj
##dic
##oepictom
##gellefrictionlessv
##olv
##opa
##ofl
print
##iye
kem
rich
##iab
##vid
##urk
##deh
##reviews
##oweb
english
##field
dep
kej
maz
pub
perf
##jvinskycattederifg
##jllaabettingk
##inm
##oly
##ados
##egu
##sss
bus
hi
kit
marketing
yam
##festnessbiophysicalohax
##fbyplaywobb
##xardenslavetusul
##xancorml
##xleasuredehydratorysagp
##jererwyatanb
##epal
##iran
##trust
education
##uncil
call
fair
museum
ugg
will
##fvinskycattederifg
##fllaabettingk
##dog
##denhancedysb
##dmachuslazaroqok
##namentalistfanchonut
##nowupblossomylixuf
##npartbulkyf
##l7
##lds
##p5
##inl
##esn
##oper
##ewel
enter
der
nag
ui
##oor
##tel
##erts
##isd
##bih
build
tg
##l1
##rateg
##ired
##ype
prov
cryp
##money
##fardenslavetusul
##fancorml
##fleasuredehydratorysagp
##dardenslavetusul
##dancorml
##dleasuredehydratorysagp
##ziologistbikerepil
##zrsensinaix
##orter
##emy
##deg
##other
access
att
bot
jen
myg
##didablyhoosieraw
##dalitydevonianizuwb
##drasildeafeninguvuc
##oenhancedysb
##zinalcentricem
##zmen
##96
##ingb
##leh
##hob
##fors
##overs
##yco
##crip
connect
simpl
lim
lak
vel
##dvinskycattederifg
##r5
##eidablyhoosieraw
##ealitydevonianizuwb
##zamentalistfanchonut
##zowupblossomylixuf
##zpartbulkyf
##eres
##ipes
studio
produc
bat
high
nhs
yout
##bellefrictionlessv
##destnessbiophysicalohax
##dbyplaywobb
##xenhancedysb
##xmachuslazaroqok
##oidablyhoosieraw
##oalitydevonianizuwb
##chs
##olit
##oka
##plor
corp
ei
email
ja
person
wj
##bestnessbiophysicalohax
##bbyplaywobb
##ges
##eva
##111
wholesal
awsdns
ten
voj
way
##rad
##iko
##obil
##upr
##ibo
##ugg
arm
house
movie
##university
gul
lyx
mit
pok
##fellefrictionlessv
##ftallulahavaw
##dererwyatanb
##een
##eiologistbikerepil
##cos
##p8
##06
##emin
##uda
##ences
##oshop
golden
bor
jobs
mur
muz
qek
ric
teach
##einalcentricem
##xinalcentricem
##xiologistbikerepil
##xorcajanunal
##xrsensinaix
##xtallulahavaw
##izh
##centre
##ahn
what
text
virtual
##dellefrictionlessv
##vellefrictionlessv
##mil
##alh
##aria
##izer
cook
##rss
##ofm
##erve
##movie
hab
kab
omn
vm
zg
##l8
##venhancedysb
##vmachuslazaroqok
##massage
##aly
##alls
##elh
##ament
##expo
guide
expert
kim
local
ult
##eardenslavetusul
##eancorml
##xestnessbiophysicalohax
##xbyplaywobb
##tsp
##efs
##access
##ources
beaut
dor
key
##bvinskycattederifg
##h7
##janerraticallyqozaw
##iso
##lace
##emm
##ecs
##ando
##efl
anal
kd
nq
squ
sign
##jfordlinnetavox
##colle
##adal
##idi
##overy
##azar
##mls
eth
nike
##bepictom
##iec
##jidablyhoosieraw
##jalitydevonianizuwb
##jrasildeafeninguvuc
##p7
##oney
##edic
##ucs
##tsh
##atter
alph
##ears
##anner
review
##mobile
cic
hard
kan
lar
vent
vop
##english
##utrit
##ogn
##yday
##associ
17
gaq
rk
##t6
##02
##andl
##chen
##eln
##abi
##ifa
##mah
##yda
##active
cloudapp
88
amb
dw
nan
oce
sams
ty
thr
##ieb
##xmen
##wire
##mall
##cul
##edl
##ances
chem
##ihg
##asters
##555
##ackets
360
arg
eat
ful
mav
nk
##bre
##xererwyatanb
##95
##esl
##idc
##uper
##bio
esc
casino
motor
creativ
econ
myw
##nepictom
##xamentalistfanchonut
##xowupblossomylixuf
##xpartbulkyf
##arh
##abo
##owh
##otech
##good
gener
11
kx
##binalcentricem
##brsensinaix
##t1
##gov
##p3
##isl
##itl
##leep
##uni
##iers
##iji
##vvv
services
cut
sag
seg
##ffordlinnetavox
##bfordlinnetavox
##banerraticallyqozaw
##jinalcentricem
##jiologistbikerepil
##jrsensinaix
##04
##opy
##essay
##acon
##yph
##ihs
bill
civ
lav
moz
sing
sco
xm
yun
##fererwyatanb
##h5
##etp
##aty
##union
##unds
##force
##igu
def
##oster
uni
##ails
rap
toy
vw
vic
##xvinskycattederifg
##xllaabettingk
##vererwyatanb
##onth
##isb
##idr
##idad
##static
##ector
##directory
cad
math
yz
comm
##inas
##arks
##emedia
##ists
##enta
##ibb
tran
extr
dir
fir
farm
rom
tod
##ven
##veg
##enix
##urb
##uno
##oba
##ifs
##ebel
fresh
##struction
service
kun
time
##fund
##ninalcentricem
##niologistbikerepil
##nrsensinaix
##isn
##edm
##fop
##aging
##aman
##open
##evo
##444
easy
christian
1s
cla
kir
kaz
vow
xw
##bol
##dig
##nererwyatanb
##lets
##h2
##kar
##zvinskycattederifg
##zllaabettingk
insp
##uppl
##nsh
##uki
##ocker
forex
glob
ath
fw
gab
kep
lap
oi
oct
qf
terr
xia
##fenhancedysb
##fmachuslazaroqok
##ean
##eat
##lic
##94
##chic
##reh
##ratis
##tsr
##oji
##hosting
##tronics
66
delt
myn
ost
ri
ralph
van
##bidablyhoosieraw
##balitydevonianizuwb
##brasildeafeninguvuc
##h8
##jestnessbiophysicalohax
##jbyplaywobb
##mac
##itan
##uri
##ixs
##ricks
##oca
##ersp
##yte
##alliance
##ante
adidas
##urniture
avt
bio
kol
sap
wat
##dfordlinnetavox
##danerraticallyqozaw
##nenhancedysb
##nmachuslazaroqok
##xepictom
##l2
##vinalcentricem
##viologistbikerepil
##vrsensinaix
##200
rus
##umi
##ahs
##ija
##ttt
##aste
tokyo
##offee
##layer
##internet
cityof
##uccess
gog
pho
water
##jepictom
##jmachuslazaroqok
##07
##9b
##omm
##inv
##onk
##utter
##iful
##iri
##ehn
##exchange
##ccs
##qhs
united
atlant
daily
moh
sys
sym
##bus
##damentalistfanchonut
##dowupblossomylixuf
##dmen
##dpartbulkyf
##jenhancedysb
##97
##enw
##upt
##ewh
##ubr
##cript
royal
34
##eim
##t4
##orf
##americ
##wws
trust
##space
##uku
##mnn
##cbb
##118
##inema
##utrition
gun
kez
lc
mach
wir
##bay
##h4
##ound
##top
##times
##vvinskycattederifg
##vllaabettingk
##apital
##oko
seo
total
44
ech
sug
sah
xc
##oks
##t7
##vet
##jardenslavetusul
##jleasuredehydratorysagp
##678
company
##erj
##istics
##iron
##aja
##angel
ti
##ham
##jancorml
##gal
##0a
##esr
##lec
##otion
##afts
##irit
##tss
ala
ced
lan
push
##kon
##vidablyhoosieraw
##valitydevonianizuwb
##vrasildeafeninguvuc
##wide
##wiki
##pleasuredehydratorysagp
##itect
##astr
##hog
##obot
##start
trend
##orner
##ways
77
amp
dol
jef
litt
sib
##det
##nfordlinnetavox
##nestnessbiophysicalohax
##nanerraticallyqozaw
##nbyplaywobb
##lif
##vardenslavetusul
##vancorml
##vestnessbiophysicalohax
##vleasuredehydratorysagp
##vbyplaywobb
##pardenslavetusul
##penhancedysb
##pancorml
##pmachuslazaroqok
##etech
##ilo
##agg
##iment
##ejs
cer
jw
mol
mul
tub
##r8
##eas
##nfl
##h6
##enm
##chang
##usp
##elm
##adm
##acl
##ccb
windows
abc
gos
jy
jam
sak
wz
##aid
##yan
##wer
##itter
##lee
##insp
##insider
whit
capital
##asket
aur
hum
##r6
##l5
##h3
##t5
##inja
##channel
##rsh
##ideas
##rade
888
publ
vof
##factory
##r1
##iad
##educ
##itut
##avo
##amn
##hro
iran
conc
david
38
##benhancedysb
##bmachuslazaroqok
##ayw
##yun
##p2
##esearch
##elly
##dej
##ulu
##estyle
##ige
##ebooks
##training
##develop
trib
plan
##orno
flu
mes
sis
##bud
##iar
##lib
##h1
##oys
##vmen
##uty
##owd
##stores
##egl
##222
essay
cih
fle
kef
riv
rock
##biz
inv
##abar
##emi
##reb
##ifr
track
##llc
cyber
cub
jul
pel
##doc
##nidablyhoosieraw
##nalitydevonianizuwb
##nrasildeafeninguvuc
##kors
##vamentalistfanchonut
##vowupblossomylixuf
##vpartbulkyf
##ature
##edw
##entures
##uld
##owe
##yxx
##udo
##propert
anime
cross
alex
##nam
##nellefrictionlessv
##nardenslavetusul
##nancorml
##nleasuredehydratorysagp
##jellefrictionlessv
##porcajanunal
##ptallulahavaw
##ising
##afs
##azin
spot
##eair
univ
whats
jus
myv
obs
wom
##nes
##icom
infin
##ogl
##idt
##php
php
bq
fat
lw
line
love
siv
##92
##alon
##atech
##edy
##lean
##ixt
coin
coop
##stone
##lum
##ksp
##anta
lead
##ecraft
hen
##uang
##mem
##asb
##hoo
##rich
##ston
trav
##pph
##jjr
##irectory
hah
know
noj
sout
##zen
##etc
##oria
##ements
##olm
##imi
##images
##kbr
##eview
##sph
proc
##ccc
##ordan
##illage
##artner
ans
bak
dal
miss
nop
sms
##ret
##iep
##t8
##olin
##realt
##credit
##italia
##load
autom
hosting
##place
bos
dun
jac
ven
xuh
##bas
##don
##dis
##iews
##ait
##icc
##abe
##ague
##istry
##aces
##ecc
##icals
##yps
##andard
##phh
##unglasses
living
dy
jep
rot
typ
wit
##ling
##t3
##wind
##power
##edh
##igl
##exs
##akes
##ync
##gear
psych
mp3
16
55
gom
zw
##fire
##back
##camp
##onews
##elecom
##amic
brain
##pps
style
grow
credit
##activ
mobile
1x
bin
lor
ling
mess
myr
##bur
##norcajanunal
##nvinskycattederifg
##ntallulahavaw
##gor
##pvinskycattederifg
##eti
##char
##ught
##dsr
arts
graph
band
back
journal
mut
qz
##lov
##mith
##index
##energ
##alm
##iser
##ises
##itv
##itu
##stu
##maker
##yds
##dsh
clic
##iller
52
dq
ell
ish
kod
louis
nyc
tok
yes
##r7
##0b
##isme
##osn
##rey
##undr
##ogg
##yxh
##ths
##uka
##qhh
##bridge
paris
domain
##ference
innov
14
46
acr
adr
cath
fy
fk
hig
##eep
##nansnan
##ande
##alv
##lack
##ults
##africa
##stv
deuts
##iah
bright
##ppp
##ihh
offic
3d
hip
lik
lot
tools
vih
zap
##aks
##ente
##ehs
##ubout
##ekn
styl
##kjb
els
pict
xin
##omed
##oso
##emat
##agency
##aming
##ehealth
##umber
static
view
##iends
server
michaelkors
54
bey
gif
hyd
yd
zen
##bow
##r4
##abb
##ysc
##hrs
##from
##ecret
full
hind
iam
oil
reb
##ania
##abc
##adel
##hoj
##egg
cha
chang
alter
##front
academ
drop
##hotography
##2019
support
eld
human
joy
made
rocks
tin
xy
you
##ela
##lyn
##inews
##evr
apps
electric
33
zu
zone
##l3
##wat
##icp
##apis
##oxs
##udd
##andt
##eft
##cours
##kjr
geek
##depend
37
90
iph
nfl
tian
vil
yog
##fast
##jet
##pepictom
##elk
##ulk
##lyh
##lywood
##ione
##iday
##ohn
##ocl
##andp
##ugu
##ycle
##sps
conf
7s
dok
fon
hop
jet
rain
sens
sov
##gaz
##ping
##pestnessbiophysicalohax
##pbyplaywobb
##ells
##agh
##adns
##apy
##irus
##exam
##uji
arr
##qrr
##khh
##look
medical
hous
abs
fish
jq
let
low
nak
##farm
##nov
##qps
##t2
##vorcajanunal
##vtallulahavaw
##ward
##jorcajanunal
##jtallulahavaw
##c9
##izen
##deals
##axs
##exc
##share
alp
##word
##records
##olesale
ach
din
eff
gon
gay
##fish
##eem
##vepictom
##vision
##jmen
##pfordlinnetavox
##panerraticallyqozaw
##aru
##usk
##abet
##avs
##acts
##mlk
check
##ijn
##jjs
academy
freel
##encia
##organ
libert
##homes
football
ale
dam
feed
sid
wol
##och
##omas
##iction
##itech
##adh
##uly
##unj
##eqs
##eba
##yls
##ipa
##rsn
##ssp
##eji
##345
aim
ens
msn
yan
##iev
##jamentalistfanchonut
##jowupblossomylixuf
##jpartbulkyf
##college
##itness
##asino
##agroup
##uvw
##iano
##ycr
##flow
orig
futur
ges
jan
mih
ryn
sor
tec
tap
who
##festival
##bor
##ianc
##wear
##03
##lax
##chamber
##iku
##stt
##ivery
##ehh
##uws
##egroup
##uga
##unty
polit
science
21
jej
tq
tan
##fix
##lmen
##atar
##ilot
##elv
##ables
##eml
##aves
coc
##oder
##ubb
##events
##sha
franc
##ppt
hotels
##onnect
365
foc
guru
ich
oly
ram
ryd
##mal
##eny
##osr
##elin
##amar
##opedia
##ikt
##www
##graph
medic
##lines
research
ket
kids
lq
lum
##bro
##cit
##onv
##hock
##owa
##uvs
deal
##ersh
##fans
##xxt
##anga
##allen
viagra
centr
software
akt
fant
look
que
ups
wed
##9f
##onq
##foh
##artic
##ufs
##shi
und
##under
##ltd
paul
##echnology
aus
apt
diam
histor
siz
vict
wear
##ibl
##gol
##canada
##pinalcentricem
##piologistbikerepil
##prsensinaix
##esd
##emusic
##apk
##ofh
##akk
##xxp
##cook
##countr
##qqs
union
##asse
##head
##advisor
times
upl
wiz
##fed
##fut
##r3
##vfordlinnetavox
##vanerraticallyqozaw
##anw
##athl
##urope
##reis
##uph
##afety
##sts
##ocom
##dlt
##rsp
##event
##spa
##114
##24h
##ski
##ainment
##oticias
edg
gem
hair
lis
sep
##lan
##lowupblossomylixuf
##lpartbulkyf
##mit
##asr
coff
##odd
##tran
##nsr
##wwp
##brand
##ytt
scot
vision
generic
58
cms
london
mcc
pack
wet
##lardenslavetusul
##lancorml
##lleasuredehydratorysagp
##ilh
##agent
##hoh
##stop
##ocol
##xxs
##council
##cdh
##conn
surv
lic
lear
mun
mex
nap
nth
ssl
##eks
##aran
##atel
##esw
##esm
##abh
##ulo
##ulse
##lyt
##ebox
##ssh
##coast
##qqr
##qqn
spark
industr
22
bell
ill
jin
main
sad
six
##fair
##gas
##pellefrictionlessv
##pmen
##isch
##elr
##elc
##dee
##hoc
##ovs
##ecu
##ehe
##ipo
tha
##atters
france
asian
##ether
magic
canada
student
ear
gop
gir
heb
ict
kos
pot
##iom
##iap
##iza
##away
##oty
##yxs
##umn
##nsn
##prom
##uxs
##ello
airport
casin
urban
hack
lyk
syd
ticket
##pamentalistfanchonut
##powupblossomylixuf
##orh
##ysk
##awards
##ikk
##owt
##ension
##afa
##igg
##yxt
##prot
##prise
##ekr
##kll
##ortg
##ellig
##ience
##ennis
1p
goh
geo
ign
mund
##today
##lawy
##ikh
##owv
##upl
##eci
##rate
##exx
##ksw
##erse
##nss
##eval
##ahl
##ijj
##ihu
progr
spac
oned
##esports
##inner
##fitness
electr
36
books
cil
miz
mcd
templ
##rem
##cont
##oration
##olk
##awh
##oter
##imn
##stars
##aze
##azy
##ttp
##whh
##ooz
##mfg
##worth
##ignment
##ummit
##electric
15
ext
hir
pak
##cop
##pal
##orat
##isr
##lej
##otor
##igi
##ylt
##egs
##xxh
##coach
##feed
##links
movies
point
48
dur
shr
zer
##r2
##ioc
##cart
##erial
##aval
##imt
deb
##networks
##even
##eko
stop
alm
##flix
##mhh
##atrix
##innov
##agram
content
##emagazine
1t
68
dos
##not
##uuv
##jersey
##0d
##usd
##ingo
##ingen
##lear
##ixx
##idu
##forest
##iak
##ijb
pros
##ygr
##nnn
##echnologies
1h
56
are
austr
dow
has
paper
rac
##lfordlinnetavox
##lanerraticallyqozaw
##vip
##9c
##etch
##icn
##epe
##ece
deep
##them
##uke
##klm
arc
##ervic
amazon
zm
##gre
##pos
##edk
##izon
##owp
##ofc
##efg
##laza
##ekh
propert
##phs
##mmh
##cbj
##yyy
adult
##authentic
##county
pandor
about
haf
mim
nord
##first
##nation
##pererwyatanb
##rgh
##ilg
##emt
##ingr
##dek
##ulator
##ungs
##ifu
##odg
##ylv
##jjb
##brr
##bbj
##community
##management
elit
bibl
##christ
##etnam
##studios
##capital
discover
bob
dix
##girls
##cer
##lyr
##estar
##umt
##qbs
authentic
##arium
afric
afr
cost
kad
pow
tas
zoom
##finder
##93
##chl
##chain
##abank
##enth
##entral
##epa
##ecenter
##apor
##arty
##yxw
##dsp
##htt
##cdt
##ojo
##ooo
insur
##update
als
kay
noz
sus
tag
talk
##mix
##cir
##enci
##ared
##isco
##emr
##fog
##agle
##ingd
##oln
##opq
##ikes
##umo
##rsr
##trib
##ako
##evs
##oyo
##001
##days
canadagoose
1j
aero
iss
kot
mud
ntt
sac
sod
solutions
vers
wild
##file
##yor
##wap
##guru
##pidablyhoosieraw
##palitydevonianizuwb
##alla
##amin
##uce
##ivs
##block
##tsn
think
##ahh
##iht
##elli
energy
##verter
##berry
##ilden
##finance
natural
##oluasm
cann
fam
system
tut
##lidablyhoosieraw
##lalitydevonianizuwb
##lrasildeafeninguvuc
##vin
##css
##amas
##kbs
##akh
##ibu
##plic
##gfs
##aller
##geek
##mania
word
##onder
##orrents
blogg
akadns
bitcoin
heart
##casino
78
dest
fq
los
lang
rat
tup
tro
weh
wex
##base
##ount
##paper
##ators
##focus
##rek
##eper
##lyb
##iders
##ajs
##mlt
##oki
##iju
##enda
##metics
##techn
bag
cinem
fuj
jim
kob
led
muse
xul
##bac
##ees
##iiq
##lenhancedysb
##lestnessbiophysicalohax
##lmachuslazaroqok
##lbyplaywobb
##aren
##itel
##chin
##imer
##trading
front
##ytes
##qqp
alf
##ska
##oshi
doub
fer
fem
kas
nof
plu
ryc
show
xk
##ismo
##osu
##uny
##owr
##ylh
##uml
##aking
##nsp
##ugal
##okr
##xxw
##klt
events
virg
akam
pixel
ams
cand
pers
rand
sob
say
zip
##hererwyatanb
community
##ized
##ilf
##ability
##fod
##adg
##entre
##upons
##arter
##yws
##ofb
britis
##ihk
##cls
##ourism
gram
##orse
exc
ltd
##blogs
##archive
engine
canadagoos
sweet
1v
86
apr
giv
pars
rest
seb
soz
tat
vy
vq
##hellefrictionlessv
##mex
##234
##anv
##eler
##leys
##ulp
##opx
##ests
##axy
##akers
##attle
##iweb
##iha
##jjj
##bby
clar
##ublishing
##munic
##films
silver
##europe
broad
cim
ciq
cert
dox
fur
len
rab
tho
##kat
##mys
##omat
##onj
##church
##unts
##ogh
##aci
##afl
##ohh
##ofn
##wwx
##aiy
##marks
plast
ralphla
30
bed
occ
zon
##bod
##oil
##cot
##pop
##9d
##emh
##utch
##awk
##hox
##ionline
##idl
##uco
##eha
##trk
##wwh
##wwv
##yme
##qqq
##yfr
##airport
##fiel
clear
fitness
learning
1g
bow
cip
goc
kaw
prep
right
smm
wedding
##radio
##yon
##tor
##pdf
##9s
##911
##alg
##esco
##izza
##usb
##ution
##olor
##ufr
##hrn
##ksr
##roz
##ugo
##clinic
##yhh
##ddt
##mp3
##come
##ashi
scienc
flo
ferr
nob
nation
tip
tool
vwx
##download
##aud
##kom
##wan
##mor
##2000
##inel
rub
##olh
##unr
##opia
##ewe
##dll
##ofa
##ihp
##jjt
##yrr
##iyy
unic
craft
##ashop
html
premium
aug
ald
audio
banc
cup
hay
isp
vac
##core
##eru
##alr
##uta
##unh
##otv
##imh
##eht
##uvv
##maj
##ylife
##ofy
##efy
##shs
##ttech
only
premier
perfect
##ewelry
1st
45
999
asn
ball
fla
gas
gur
lol
pip
security
xq
##family
##ken
##alam
##orq
##emd
##yxy
##ofw
##athon
##others
##owser
##ydaylo
1l
1w
555
cav
fix
lun
ott
raj
sas
sell
tuc
wang
xtr
##zoo
##456
##inx
##engl
##elg
##ysl
##urp
##idp
##irc
##estud
##uft
##yll
##train
##okh
##wwn
fran
##klo
##cbf
##qrn
head
modern
1f
1r
25
emm
earth
icon
kap
kak
tit
vod
##iaj
##qts
##kitchen
##gow
##garden
##anth
##ifl
##ste
##stl
##dls
##ubt
##pring
##shh
##qbr
##ybs
form
laur
##medic
googles
##ipping
35
42
bah
dik
gro
kiw
##bir
##wal
##gate
##cafe
##ongs
##rgn
##izi
##asl
##ady
##unes
coupon
##odi
##state
##oxx
##ebank
##oha
##oht
##udt
##eful
##wwt
meet
##crm
##brasil
##ango
##anger
##ujs
##quare
small
##espons
magazine
##arcel
##choice
dani
git
nts
systems
voy
##lorcajanunal
##ltallulahavaw
##uum
##mill
##inw
##hoe
##iry
##irv
##igroup
##umu
##eyb
##eyt
##ccr
##jjn
##knm
##nnv
##yjr
##qpt
##wrr
clip
##outlets
##epress
keep
mail2
career
1n
hns
kop
kup
women
xi
##dam
##nic
##lererwyatanb
##tidablyhoosieraw
##talitydevonianizuwb
##intl
##ories
##onds
##esu
##laf
##iler
##obj
##imal
##station
##akr
##ibc
##ybo
##nnr
##cbc
sha
##ozh
freep
proj
contr
28
91
doctor
hydr
own
pit
wan
##boy
##lvinskycattederifg
##lllaabettingk
##hepictom
##mont
##9e
##omics
##alf
##alian
##atu
##oland
##adar
##ential
##idel
##ufh
##ocon
##ege
plant
##uxw
##cdd
##wxy
action
##onto
##yuan
##ograf
artic
links
##ildrens
olymp
1c
amr
cars
myk
syr
weq
##berg
##myp
##girl
##gallery
##411
##pages
##utv
##opo
##kyv
##ecity
##iral
##ohs
##yxp
##udr
##ijr
prox
##ccd
##brides
##gfe
##krr
##indi
##dhh
room
islam
sound
visual
india
##reative
photo
russian
26
dob
fav
var
yellow
##mir
##erald
##ethe
##onw
##usc
##user
##about
##hok
##iman
##luv
##ewa
##ipc
##udg
##ycs
stev
##fff
##ukt
##crr
##gfj
##dress
##uzh
##wvu
##ickets
##4you
1d
bett
cec
dist
dre
gel
mens
mkt
##ieh
##yer
##tfordlinnetavox
##tanerraticallyqozaw
##wow
##osl
##osm
##elic
##ikl
##idh
##idian
##oves
##axi
##tracker
##egame
trad
##ihe
##ihx
stoc
##cross
##qqj
##kjs
##ojs
##mtp
europ
clean
john
##gaming
##industries
beh
had
kok
ryh
tutor
##aig
##horcajanunal
##htallulahavaw
##zer
##papers
##onu
##esis
##laj
##ilu
##osb
##fob
##uli
##imr
##imag
##ufy
##insight
##dsb
ste
##ymp
shang
##aii
##iyi
##ailand
##assion
##airs
##voice
##files
##dependent
akamai
43
ecc
fed
igr
lem
lets
myj
pun
ras
vet
##red
##nyc
##irg
##tepictom
##arf
##asu
##illy
##osv
##amed
##unu
##epro
##irts
thin
prest
##csr
##hsr
##vvn
##commerce
##endo
##heart
##lands
moncl
monster
##arget
report
##analytics
1b
1m
leb
raz
soh
ssn
tob
wap
##fest
##iod
##iek
##linalcentricem
##liologistbikerepil
##lrsensinaix
##0c
##icb
##isen
##itp
##asoft
##ablog
##emc
##uters
##hoy
##owx
##hrr
##hrh
##eball
##ofv
##trip
##okn
##ssr
##efn
##ffj
##oston
##ejerseys
##wsr
worlds
##medical
1q
cep
cro
fog
font
kub
naj
rod
sed
sew
sark
##face
##iyr
##hamentalistfanchonut
##hpartbulkyf
##gif
##cup
##cms
##etics
##enx
##rgs
##itions
##yshop
##utu
##amt
##made
##ebc
##kbb
##umh
##mll
##exas
##trends
##formance
##pros
##ffs
##mnv
##ygs
##kjm
##qrw
##bbb
##drive
##qpo
##indo
##words
##guard
##ache
opens
celeb
40
bds
ems
goo
rak
vint
whe
##hardenslavetusul
##henhancedysb
##hancorml
##hleasuredehydratorysagp
##hmen
##hmachuslazaroqok
##torcajanunal
##ttallulahavaw
##enu
##atec
##chh
##ilb
##elife
##emv
##avr
##urier
##rees
##apol
##iml
##sta
##stock
##ivt
##ewn
##hra
##ipx
##mgs
##try
##ologia
##ctt
ark
##qnr
##qpx
##iyu
##cjr
##eee
##endar
ort
blue
porno
simply
##adalafil
4s
47
84
ecl
hun
hall
kino
mec
meh
vvv
##fashion
##hestnessbiophysicalohax
##hbyplaywobb
##cons
##cash
##inz
##eso
##chan
##amh
##awp
##ogen
##ifj
##ecure
##uca
##eqh
##ework
##oxt
##bib
##ayt
plat
##ymb
##mrn
unit
crack
swiss
##designs
##theatre
legal
howt
##weekly
##ildenafil
amn
drs
esh
jur
wav
##blu
##188
##etic
##icy
##rgl
##izs
##asd
##asis
##epc
##idy
##kyt
##oww
##ovi
##arte
##ofd
##evv
##pra
##efu
champ
chines
##iws
##cbd
##iyq
##qxw
##qll
##uya
freedom
##2018
parad
upd
##occer
111
23
aid
bbs
gez
hil
jian
kik
ppp
sss
yor
##dot
##led
##hidablyhoosieraw
##halitydevonianizuwb
##inu
##ativ
##isan
##itage
##aso
##usn
##emet
##foj
##agi
##unw
##essays
##ional
##forex
##rict
##stx
##ewp
##ehl
##ufv
##ufj
##ocn
##iere
##ssl
##efb
##cout
##qqm
##gfb
##xsr
##xhx
##ystore
computer
##decor
##legal
##experts
05
bop
dhl
four
flex
gow
joom
kyr
rog
rail
##fab
##hinalcentricem
##hiologistbikerepil
##hvinskycattederifg
##hllaabettingk
##arena
##atp
##itiv
##foc
##entals
##kyn
##ovr
##irn
##imate
##luk
##ypp
##ewy
##arta
##ofg
##ksn
##thew
thej
thech
##aht
##snr
##csd
##csc
##mmp
##conc
quant
gaming
ars
cul
eps
gox
ims
naz
nvv
ron
sip
tul
tips
ust
vest
##irat
##won
##uals
##0e
##9m
##edesign
##itb
##champ
##osg
##avy
##unet
##unge
countr
##ucl
##ucet
##stats
##ivr
##ebb
##ugn
##spp
##nls
##msr
##ynn
##mnr
##mmr
ship
##ezy
##mrr
##qlt
##hotos
carr
##ushi
solar
##earning
##motor
giz
jos
koh
mig
pep
skr
##far
##qnn
##kop
##ktr
##kok
##vol
##vac
##wiz
##mel
##mind
##gat
##itys
##emar
##adu
##idal
##ofp
##akl
##ayr
##ssn
##iqp
##ppx
##eyn
##ffv
##ynv
##qqt
##lsr
##yfs
##ghi
##kkk
##acht
quic
##etravel
metal
inside
deutsch
87
cac
cib
fob
gym
icc
jud
muh
nos
rank
##ifor
##enow
##alu
##rgt
ink
##amr
##leo
##adow
##opin
##kyh
##acle
##account
##apes
##esth
##imon
##udn
##thing
chil
##snow
##xxl
##cool
##mng
##yto
##ieu
##yvs
neur
##ollection
georg
##rewing
##realty
focus
akb
gap
harr
laf
libr
mum
rout
wif
wak
##women
##omn
##arel
##osts
##utw
##utz
##unl
##opc
##ikr
cours
##acar
##ucn
##umj
##dlr
##ipd
##tsb
##trav
##akn
##ayn
##okk
##progr
##efa
channel
##ahp
##ppq
suz
##brands
##qrq
##ggt
##mjk
##onlines
##jrr
quick
##ollar
homes
##desk
surf
##eplus
##ifieds
gof
gift
girls
his
msp
zy
##aign
##lot
##hfordlinnetavox
##hanerraticallyqozaw
##oog
##jam
##ilr
##osi
##deo
##kyr
##odom
##igar
##stuff
##eqn
##hrt
##yxc
##rsj
thev
##shu
##iwa
street
##plet
##eyr
##uhg
phys
cryst
##people
magn
##depot
turk
golf
onlinecas
##azaar
60
abb
aust
garden
hxx
james
mij
past
usp
wer
##bang
##vel
##mic
##more
##ally
##atm
##isg
##rgr
##itc
##asw
##urst
##rea
##adom
##ecare
##afy
##igt
##bij
##ksl
##theb
##andy
##efi
##ekk
##ahu
##qbj
##psc
##ukh
##kjq
##mmm
##flor
##uyen
##boots
exam
autos
servic
##advert
##gener
##adrid
startup
##essional
3r
boj
eus
hong
page
tem
tube
wtf
yaz
##bab
##yar
##lat
##oads
##testnessbiophysicalohax
##tbyplaywobb
##pen
##ple
##isu
##utp
##rez
##ulf
##ogy
##ogroup
##stand
##ksb
##ibf
##fant
##iqr
##spq
##snews
##pls
##uxx
##ctv
##ejr
##qsr
##ttl
##indian
##assist
end
study
campus
classic
##istrib
secure
trafficmanager
777
d1
lay
meb
nash
okn
ple
tuf
##bad
##tvinskycattederifg
##tllaabettingk
##omer
##omet
##anime
##erry
##arianaqh
##chn
##chu
##chp
##uten
##amat
##ogt
##kyp
##qov
##ovn
##ecar
##ehg
##may
##mld
##bie
##tsj
thek
##uby
##ssc
##dsn
##bike
##uxe
##ffn
##ukr
##jjq
##bsr
##gfv
##grow
##orton
##yhg
##qjr
##ervers
##120
amer
##567
board
oper
msedge
##berr
##ercial
##reams
institute
notic
nikeair
ais
abr
cst
dark
hex
hdf
iot
nest
opp
owl
poker
qur
restaurant
sic
scc
tuj
temp
wen
##but
##mut
##mad
##9n
##9p
##anx
##orj
##esf
##esigns
##osf
##abu
##fov
##unp
##ixu
##ixel
##ogw
##idn
##imv
##imed
##ibg
##ugl
##wwg
##ffr
##yndic
##crb
##pharmacy
##csx
##kjn
##gfr
##drr
##eze
snap
make
account
simple
27
70
bbb
dian
gsp
hat
iow
kil
kul
koz
saw
sql
uns
yum
##lellefrictionlessv
##tererwyatanb
##myw
##288
##alle
##arad
##elis
##emf
##emu
##utg
##agt
##aworld
##united
##irb
##ivf
##bls
##prn
##ycles
##eki
princ
##qhg
##qqf
##ddd
##dhe
order
##vpn
##uuu
##contr
quest
##ussion
reviews
000
3s
333
74
75
buzz
ces
cultur
elp
geb
jack
lag
seh
ssp
spl
##living
##ination
##onia
##itra
##olp
##istan
##ulg
##epn
##idom
##iden
##acao
##ifh
##apro
##ivi
##kbj
##exy
##mgn
##ofi
##egn
##iqs
##eke
chec
##ijq
##ihc
##cck
##ffb
##qrb
##control
conn
agency
##repair
themes
googleapis
##clean
tourisme
agn
bis
fel
jum
neg
pric
yab
##wom
##mrs
##cur
##osd
##usr
##utc
##opk
##opv
##opw
##epark
cot
##ogv
##ogames
##upo
##ewr
##uvf
##uvr
##thh
##trend
##ibj
##oken
bridg
##iqn
##ahi
##ihl
prob
##uxp
##ioj
##ygg
##qqd
##qqv
##vvf
##gry
short
spar
##eeks
##ighting
##icker
freed
convers
week
##financial
andre
advanced
colleg
31
4t
67
8s
caj
fas
family
htt
hbj
imh
kle
rew
send
villa
wash
##aat
##xwv
##wir
##cod
##itd
##aser
##osj
##abil
##abase
##ysr
##istic
##qoh
##styl
##steel
##blr
##yland
##ipu
##traffic
##egal
##efe
##oyu
##ijm
##ctive
##coop
##mnw
##bridg
##mmv
##cbg
##ghh
irish
##bbq
##quq
##ggv
##cjb
##qxr
##anto
##gjr
##ishi
scott
##interactive
##ournals
##oducts
mega
##onesia
optim
2s
bjj
beauty
cell
eml
fond
gcp
herm
mone
ped
sst
swn
tuw
uch
virt
xa
##bel
##yyx
##0f
##anks
##enef
##icf
ing
##unf
##epo
##lyp
##oge
##qoq
##ifv
##ydd
##oce
##exh
##rsx
##root
##ubo
##prr
##efv
##iwp
##qbb
step
predn
##uko
##mnm
##bra
##ygu
##csf
##knr
##gfm
##vvs
alla
##iyo
##wpq
##ichi
##doors
##shops
##observer
texas
##ildren
chicag
personal
1k
444
6s
avi
bes
bmw
cbs
glass
ntl
osp
pad
tvs
vert
wux
##ifo
##yang
##tenhancedysb
##tmachuslazaroqok
##van
##wis
##por
##inq
##etg
##alab
##arin
##itat
##utx
##aww
##lyf
##iones
##ogic
##idx
##ovu
##eclub
##aju
##rsk
##duj
##speed
##iwh
##ihd
##ccn
##mnk
##crj
##clothing
##tern
##csb
##yfl
##gfn
##hsc
##whe
##ishop
crow
##cient
##orning
ilov
##magic
discount
##ottery
phoenix
double
5s
atom
bec
csn
cbd
diy
down
diet
emt
fig
okt
petr
wwf
xo
yen
##bbs
##soft
##cars
##partners
##eria
##eton
##alent
##onav
##olpr
##awr
##ogp
##anca
##upk
##sty
##hrp
##ohl
##tsv
##nsw
##iqt
charl
program
##plc
##eya
##eyh
##ccx
##ccj
##yne
##qql
##cdr
##know
##uha
##uhh
##qpn
##wvr
driv
##rael
image
diari
serial
tourism
technology
##realestate
##machine
ocean
little
85
csp
eart
fol
fiv
guj
i2
ipt
kore
l2
lil
mof
matt
oss
ovh
pil
sik
tol
tnt
vik
walk
yok
##australia
##cad
##500
##9h
##anat
##etail
##osx
##urc
##unv
##opg
##kyb
##owy
##ecast
##image
##imedia
##ajo
##ksk
##things
##ershop
##ugr
##wwl
che
##cct
##ldr
##mnh
##ytx
##iez
##france
##whp
##kkc
dragon
##moon
euro
##ussia
cheapjerseys
series
##valley
pirat
##association
32
65
b1
csh
enj
fact
goj
hobb
maf
ntr
osr
pus
ris
ring
sent
sea
wyn
yur
##fig
##bag
##div
##ibi
##oos
##kid
##tinalcentricem
##tiologistbikerepil
##trsensinaix
##time
##pol
##pac
##edv
##itx
##elink
##ogj
##kyx
##ovv
##lud
##umf
ukr
##udy
trading
##uxh
##brain
##klr
##uhp
##qrh
##jsx
##frr
##ggj
##idea
##hhh
##isha
phon
block
##doil
##anning
weather
advent
##emplates
##aywrit
64
akh
bund
dsp
egr
fod
fak
iel
kent
kaf
ksn
liqu
nev
prec
rez
ses
suv
smt
unl
wes
yas
yak
zak
##lik
##kal
##tmen
##jes
##mes
##9t
##inity
##etw
##ende
##orl
##chef
##osw
##agem
##olr
##dea
##rej
##kyj
##upa
##ucr
##std
##story
##ufa
##umr
##udh
thest
##ibre
##dsl
church
##ppl
steel
##plr
##mnp
##qhw
##wsw
share
##yvw
##gnr
##qvn
##668
##iii
orang
##achi
works
##ecrets
##ownloads
happy
pacific
##associates
76
bim
csr
dic
did
festival
gla
gut
gav
imv
jon
last
msk
nut
nnn
ooo
pes
tes
##iaz
##var
##mss
##gun
##gold
##green
##cde
##pod
##omax
##anel
##onts
##rgv
##osy
##urj
##dey
##ixh
##ixp
##apo
##luj
##ehu
##ebuild
##mgr
##tsk
##udu
##ugt
##ubai
##fanarianaqh
##dsc
##wwr
##she
##ijv
prog
##ccl
##qhn
##jjh
##jjv
##csj
##vvr
##uhu
spb
##qrj
##ghx
##ktw
bloom
##eship
convert
institut
a1
aks
amm
b2
bjh
fal
gib
hik
icr
imb
kum
mst
mip
ont
rek
saj
sek
vap
vpn
##iors
##liv
##qpp
##wers
##etd
##ative
##onom
nets
##ityp
##ilc
##elu
##elev
##ulc
##forge
##bling
##ocb
##biq
##theme
##ubm
train
##iwx
##plo
##qhx
##ytv
##cdg
##klp
##mbh
##astore
pharm
##actical
##keys
##ordans
files
##iques
florid
07
222
ade
acs
bbv
c1
cet
file
him
hds
hans
jec
jap
moc
n5
och
omr
phr
sct
wid
yyx
##iih
##ket
##kur
##tardenslavetusul
##tancorml
##tamentalistfanchonut
##towupblossomylixuf
##tleasuredehydratorysagp
##mand
##pack
##0p
##eros
##etx
##edev
##ithr
##agb
##entert
##opi
##opu
##eporn
##obu
##oblog
##qox
##uctions
##odge
##eqr
##ehd
##uve
##etty
##tsl
##udom
##thp
##egames
##iqq
stock
prav
##cll
##cdc
##gfg
##cbv
##why
##wnr
##krv
##oza
##mrp
flow
##scolpr
##escorts
epic
spring
##engineering
onedscolpr
57
72
aar
beb
bbr
bez
cis
emf
emv
fans
gps
jbj
kav
kiss
myx
myz
ppt
sleep
vox
xen
##big
##byd
##iib
##tpartbulkyf
##pat
##orama
##icu
##isy
##edel
##iten
##chg
##osit
##ikn
##ikj
##lyl
##owg
##upload
##otu
##imu
##ypx
##eqp
##uvu
##ylr
##axx
##dlp
##exr
##tsd
##tsw
##trader
##proc
##dsj
##wwd
##yct
##snn
##qhp
##clus
##ygl
##eju
##qqy
##knn
##ktv
clinic
##163
##loubout
island
instant
bookmark
##universe
german
##electronics
1000
2n
59
aub
but
bam
bing
curr
feder
fbs
gil
ggp
hbr
holl
lep
laz
match
ping
sij
smb
tig
upp
w3
wot
wah
yal
##iest
##iyx
##aqu
##kov
##kins
##mum
##cab
##consulting
##pad
##ongt
##edx
##ysis
##olom
##ento
##eport
##ixr
##kyd
##owo
##acity
##eqq
##azh
##ehq
##ufe
##kbn
##ywr
##ipg
##iper
##etti
##andh
##ibh
##iql
##ekp
##iwan
##kjy
##kjk
##vvw
##nnf
##gress
##gnq
##bbv
##qjk
##flo
##dtv
##cpa
##007
##meet
##illi
explor
##author
buyc
##affili
expo
capt
teen
01
63
666
akv
bom
bic
baz
bear
barb
better
cev
erg
fen
history
iap
kud
mox
nrs
ogr
raw
smh
sund
song
##bat
##coh
##erz
##etz
##enew
##ored
##area
##ongh
##isv
##eday
##elist
##aban
##emj
##admin
##unic
##ixw
##oti
##otal
##otel
##ecb
##blo
##hrm
##yxl
##mlw
##mlg
##mlp
##ksa
##insights
##udx
##trail
##okp
##ssj
##ukn
##kjg
##klg
##qnh
##yjx
##qpw
##wxh
##ourg
##anka
##mountain
excel
boot
##resort
snow
##warehouse
baby
robert
##opolis
##upplies
bnn
curs
icp
lanc
lig
ner
phh
rav
reh
retr
ttt
town
ush
umn
zq
##fax
##rac
##iol
##loss
##tellefrictionlessv
##uma
##inds
##asion
##emq
##emarket
##avan
##iker
##hoq
##hour
##lyj
##ogi
##upe
##qot
##stw
##lumb
brit
##evn
##evu
training
##spb
##ijf
##ijia
strat
##platform
##yny
##clt
##yman
##vvu
##mmb
##gll
##ddx
##ghk
##kpq
##wvn
##xhh
##undo
##uston
##eroes
guard
financial
##enberg
econom
09
83
ait
bib
e2
hnj
jsh
mmn
mall
ryl
ross
##jun
##mid
##inance
##etk
##oral
##arian
##isht
##edin
##utk
##urd
##deq
##adigital
##ulr
##ixg
##kyw
##upx
##ackp
##ecloud
##estat
##imd
##stoday
##ypg
##ufg
##ohe
##ocv
##yworld
##umy
##ksj
##irec
##tsf
##udp
##trr
##egen
##egos
##forms
##ssk
##prem
##efj
##iqi
##duh
##eyy
##msk
##osti
##ynt
##mnq
##pharmac
##mmj
##grr
##whx
##kranma
##fsr
##wrq
##mjg
##wtd
##eals
##2017
##ampus
moe
hyper
##olidays
crypttech
samsung
##yndication
aab
bjs
boz
bbj
dip
emx
goz
h2
lip
mond
ntv
osh
sop
touch
vps
yad
##bee
##oop
##test
##pot
##page
##inery
##anu
##erie
##etro
##enal
##arj
##onics
##usf
##elx
##ysn
##ember
##fof
##oworld
##acj
##odl
##stc
##ypk
##ywt
##ipment
##trum
##ubu
##ycn
##yzs
##ijt
##ijg
##eyour
##uxn
##ffp
##jjw
##gsr
##ddr
##drop
##ailynews
##mei
##industry
aux
boy
ceb
cyt
hak
hhh
hlj
igl
imt
liter
miam
noc
nff
qyh
soy
scs
smr
sildenafil
tang
was
wsp
##meg
##arv
##ilv
##ysw
##uti
##foto
##avis
##dew
##reek
##adl
##hoa
covid
##ifb
##otc
##irh
##iru
##ehp
##bles
##kbh
##kbo
##ocity
##dlx
##rsv
##ofj
##tsx
##andc
##evj
##anbul
##wwj
##ijx
stro
##eyo
##hthoodivettewl
##ldt
##ostar
##ejb
##qqx
##ujo
##mmt
##uhx
##qrp
##gnj
##eaks
##krmassage
##qfv
##110
##uee
##mjr
##wpn
##cxy
##rrr
##kwiugkeq
road
people
airmax
##atural
##advent
##ecruit
dating
##ification
##ycling
##estaurants
retail
##limited
angel
##cription
##allenge
upload
aap
age
college
dtt
esn
f1
jes
jnj
kov
mission
nab
qes
qqj
rah
term
tadalafil
won
wod
zjj
##a9
##uer
##mmn
##155
##omag
##orig
##atc
##lake
##asing
init
##lek
##urw
##awt
##iken
##acf
##imf
##stp
##oxh
##uvp
##yxr
##aji
##explor
##etta
##ssf
##wwf
##ukk
##cru
##bru
##nnj
##uhe
##ghd
##khp
##xsj
##ggg
##qxc
##kkf
##qlk
##uyy
##gvn
tops
##blogger
##ublish
mete
uggs
##onicle
##olicy
pandora
brook
rapid
3g
ded
ecom
fvv
foll
guv
gear
gets
jing
kut
mcn
msr
qqr
scb
ssr
sust
tsn
ttl
url
wine
wox
##bin
##bid
##iyv
##tools
##god
##golf
##init
##etl
##orx
##aries
##isf
##rgp
##chd
##chy
##reach
##adx
##lyx
##upn
##upv
##imj
##odn
##luf
##eqt
##eqj
##azi
##ufu
##ylk
##ajr
##ajj
##ksx
##udw
##andco
##ssx
##dsx
##ycp
##ijing
state
##eyv
##ybb
##qqw
##ujr
##vvj
##mmq
##gnm
##88a
##qnv
##arkets
##cfe
##dhx
##wbj
##eeu
##pets
##erty
##guides
craz
##ending
edge
##eeds
##monitor
model
select
bun
bpp
beach
cmp
corn
elt
gub
ggh
kyz
kind
kings
mop
mrs
pps
rid
sut
suf
yut
zk
##bell
##aas
##tour
##wise
##consult
##315
##orw
##eden
##itm
##itung
##amps
##lym
##kyl
##ifn
##apost
##afi
##azil
##arten
##ufn
##ebn
##ebj
##axis
##mlx
##roo
##thx
##tht
##trac
##egt
thre
##nsx
##ugar
##iqv
cher
##iwl
##iwo
french
strateg
##ostore
##ygn
##bsb
##csl
##csg
##cdp
##grp
##ttd
##yhp
##khx
##cnm
##mrh
##cjm
##qxh
##qvr
##elling
##dhl
##mxr
##wgw
gouv
##cade
##weet
freeb
##ictures
sales
##imple
##lawyer
##ydayloans
39
41
89
auv
batt
bpt
cay
cyc
fest
foto
hdp
hnh
icb
iyj
jordan
kiz
kel
mib
most
mcl
mmf
nad
nnv
nurs
qux
rip
sist
sok
sef
waz
yep
##buzz
##vas
##0x
##9j
##anas
##erx
##itec
##chx
##usl
##abt
##emx
##epage
##lyd
##idm
##kym
##obank
##upc
##afc
##igm
##ewell
##ohx
##yxk
##umc
##uwt
##efm
##iqh
##yclub
##plant
##ccp
##yby
##ybh
##ymj
##cdx
##cdm
##gsx
##cbn
##yhk
##qrk
##jsr
##jsc
##quad
##xsb
##qpq
##antic
##gvr
##yka
atlas
calcul
assist
##study
universal
##builder
littl
tekn
##development
aix
bjp
balt
barr
das
ecb
gsr
gvt
hav
hbs
hnn
hnr
ios
iib
ips
lost
load
mgt
mits
nxt
pxh
secret
v4
with
yar
yyd
yyf
yuz
zdr
##bed
##qph
##9v
##alat
##alert
##rgg
##itj
##usx
##emw
##foll
##ingm
##awe
##idv
##ifx
##ovm
##oven
##apn
##afm
##irp
##igen
##ivv
##eworks
##azs
##uvj
##hrc
##ebd
##ydt
##yww
##tsc
##egj
##ugj
##ubh
##ssw
##efc
##ppw
stand
##ples
##eym
##ccf
##cco
##ffw
##htx
##ynr
##mnf
##mnt
##phy
##ejackets
##ujk
##mmx
##yrt
##ktx
##krb
##qfn
##mjt
##qvj
##qlr
##uyu
##yqy
asc
##bits
frees
##peed
magazin
##laces
salon
80a
timber
##ingham
russia
party
goldengo
##country
akamaiedge
ayd
cen
diz
dad
dfs
egj
foq
gard
hdt
less
rnn
rocket
skj
swv
scp
sale
tac
vist
vyx
wix
wax
zug
##fur
##qsn
##qqh
##wil
##9r
##anie
##atb
##esj
##itag
##itects
intl
##chart
##uso
##usv
##elen
##uture
##amu
##amg
##olx
##olls
##adas
##ixo
##lyw
##ogd
##idb
##kyy
##kyq
##owc
##acu
##ecial
##stein
##ivm
##ydx
##ohu
##yxq
##ocd
##mlo
##ipn
##insh
##inson
##ssm
##ijo
##ihw
##eyj
##xxv
##ymt
##klx
##ttw
##glr
##ddc
##quan
##ezs
##qno
##yjt
##ourne
##ourmet
##ggu
##writer
##mrj
##mtl
##qvu
##mhp
##55a
##008
##fvr
##zhu
##assy
##99a
##iche
##beer
##enger
monitor
##escort
##reativ
softwar
##facts
catholic
ralphlauren
53
79
amf
bjn
cum
cant
gyx
gok
gui
hart
iod
jas
jjj
mand
muj
mater
nbr
ninja
qep
sul
syl
sej
scj
wkb
yif
zzz
zjh
##bnb
##aik
##library
##kcb
##omh
##alex
##isw
##isol
##itg
##ysf
##uting
##avn
##awl
##reak
##adn
##ulv
##ixv
##ifp
##otec
##ecor
##ucj
##ucp
##igp
##ehm
##ehome
##ufc
##hrw
##ebay
##rsl
##ofx
##ugw
##prod
##prene
##dsk
##ppk
##qbn
##ihv
##ymh
##yrb
##uhl
##ghl
##friends
##wnh
##yjb
##yjv
##qjb
##ggd
##dnr
##kkx
##gxy
##ouq
##outs
##panel
police
##haus
##recipes
region
robot
##urvey
collect
fundacion
##eguide
analytics
##chicago
##articles
1y
82
a2
aeg
acl
cult
cafe
ddl
dht
dong
eep
eef
fok
fnn
gep
gst
girl
hpp
kkn
mcs
mcf
num
ood
qqb
rar
roll
smf
uox
weg
wuj
yod
yst
##iog
##iij
##0h
##alud
##orial
##arx
##lady
##edigital
##itn
##izu
##urm
##opn
##epx
##lyv
##obt
##upw
##upm
##ifer
##ecdn
##imc
##eqw
##uvk
##ebp
##ajt
##ocean
##umv
##mlm
##ipz
##biy
##tsg
##egur
##nsl
##prp
##ycc
##ycom
##ekj
##ahd
##ihn
##plp
##uxt
user
##ctl
##bride
##ejo
##qqg
##kjv
##cdf
##klh
##eza
##qpd
##qjq
##geo
##wtu
##qtw
##cvr
##66a
##448
##aude
##letin
##atches
##offic
young
solid
##apress
develop
##enetwork
animal
facebook
##vegas
christianloubout
sarkar
3p
4p
7t
acn
ble
buff
clu
d2
ddd
doct
ffs
g4
hunt
iyz
jns
jacks
lec
llt
mist
msh
pxl
pink
qub
ryt
rrr
##down
##pass
##0s
##anit
##arw
##arz
##onym
##esv
##edf
runn
##chc
##avv
##agf
##olive
##ules
##unx
##ikv
##idj
##kyk
##ifw
##apart
##inex
##imx
##odh
##igy
##igration
##strateg
##ivn
##eware
##ufl
##ydp
##axr
##umd
##uwf
##ipk
##exv
##extr
##mgg
##ofe
##egf
##ugp
##program
##bikes
##oyt
##iwv
##qbv
##ffx
##psv
##xxn
##cdb
##cdq
##ojr
##gram
alls
##yvr
spirit
##qrv
##ghp
##wholesale
##krq
##qnf
##wvf
##wvw
##wxr
##cpq
##ervation
##wll
##boot
##nrn
marc
##offers
##itton
integ
##record
finance
directory
##irror
##ywhere
##asketball
googlesyndication
4x
adp
b4
bht
dia
dbs
ekt
emr
gest
icl
jer
jll
kis
kag
kwl
lian
mwh
miy
nac
osn
qqn
rex
scn
sne
tecn
vib
wuh
yix
##oob
##kun
##ueh
##omt
##omedia
##etal
##arent
##isoft
##chw
##ilp
##illas
##oses
##elig
##abel
##ysg
##amd
##amy
##amk
##amics
##adb
##ulx
##epay
##ober
##owk
##ovf
##ovy
##ecut
##afx
##estudio
##igan
##ivu
##mai
##ebh
##ylx
##ylp
##ylor
##ohp
##oclub
##ywx
##ywv
##mgp
##thu
##erss
##nsv
##centr
##ssg
##prf
##bull
##ahe
##htj
##xxj
##brb
##ioo
##kji
##wsc
##gsl
##hsj
##mme
##yrc
##yhx
##wnm
##qnk
##qjn
##ggk
##cjn
##qvw
##gji
##gbt
##npn
##acket
##aaa
ord
exchange
##construction
##beat
appl
##blogg
##oldings
minecraft
serve
metro
freeebooks
infos
##eboard
##ything
special
##forsale
alternat
sparkasse
##entertainment
2h
adn
beg
cine
cyr
cmt
dtp
egg
ecp
gid
hdh
iut
jbr
kuk
kkv
lal
lyn
loj
lbj
mep
mia
mux
mmm
nem
ntp
okj
rrs
sog
sot
swt
tuv
tjj
uut
ucc
vrr
wyd
wmr
##dcb
##csp
##2go
##177
##oment
##inen
##aln
##icj
##onx
##edj
##rgx
##ilw
##foo
##ulw
##ulz
##unb
##ixn
##hoz
##lyg
##owiugkeq
##acenter
##otg
##ecd
##irf
##esto
##imk
##ivb
##ivj
##ebf
##yxv
##ajerseys
##yweb
##umg
##uwj
##tress
thetr
##ibp
##okt
##dsv
##iqj
##oye
trac
##ahj
friends
##ppn
ston
steph
##eyk
##ynj
##phil
##phone
##eje
##yfv
##gfu
##nnq
##iee
##gnv
##bbw
##mpn
##ezh
##qpc
##vsr
##119
##uyo
##kfv
##compan
##appy
qual
##advice
wpad
##eacher
womens
2g
aip
aps
akr
ace
bjt
bern
caz
dial
dhh
dental
euv
eex
eij
hph
hfj
hrr
ikn
jia
jxj
jjv
kuw
kah
kors
mub
mcb
nds
okl
okh
omb
pik
pds
poz
saz
syb
sail
success
tts
txt
umb
wst
wef
winn
xian
xth
yyb
##iop
##iob
##audio
##tim
##uite
##guy
##omar
##orge
##icz
##lair
##itk
##asf
##asv
##abz
##emuseum
##adp
##entai
##ulh
##owf
##otl
##este
##ehx
##oxl
##kbt
##uwx
##uwu
##udc
##ayh
##okj
##evf
##evw
##oyv
##aham
##ppc
##ije
##ijy
##ijc
##htv
##ynh
##jjy
##cry
##brj
##kjh
##ojv
##hsb
##klin
##ghe
##khd
##whn
##qpk
##vsx
##wxt
##mtn
##astic
##assets
##assignment
##qmd
##icher
empl
reading
##atravel
funn
revist
##eddings
garag
british
noticias
118
aaf
acd
akn
bart
bjr
bau
ekb
hnl
hang
hpt
hbv
ion
jds
kart
kgh
lpt
niss
ogl
prs
path
pizz
qch
qian
qyb
ran
rtl
sif
swr
scf
scv
saint
tdd
ucb
upt
wsr
yeh
yuk
ycj
##wel
##uux
##mep
##gro
##etb
##orv
##atk
##ases
intr
##abis
##abad
##abeth
##emg
##league
##opd
##ikan
##ixin
##ogf
##kyu
##acg
##acel
##academ
##ensa
##odx
##sto
##ewo
##azion
##ocw
##ocj
##dlh
##uwn
##wyt
##udes
##thai
##tri
##nsj
##iqb
##dux
tren
##spy
fres
##qbh
##eyf
##ldd
##xxr
##pharma
##gfy
##qsj
##yrq
##qrm
##qrc
##886
##wnf
##krj
##qnw
##fsx
##qjm
##mtg
##antage
##dvr
##mvw
##gbg
##wfv
##wfj
##gpx
##btc
##actic
supers
##republic
##reporter
##worldwide
burg
##adventures
youn
websit
##writing
##properties
##elligence
auc
amh
bbl
bdj
bxj
cak
dff
ecj
egb
hur
hog
hdm
hill
herb
iif
iyp
ics
jnl
jrr
kyl
kuz
lion
lbv
mmp
myst
nin
nrr
oov
ons
pbs
plug
qih
ssh
tns
ukb
uip
woh
woj
wwx
wish
yil
yap
yyt
##fle
##beauty
##team
##walk
##japan
##anes
##atal
##icx
##ongd
##chk
##chm
##usi
##usu
##ysj
##fok
##avt
##agm
##leaf
##isto
##opm
##ixb
##owj
##otk
##ections
##apc
##step
##ivp
##ypn
##ewt
##ewith
##ufw
##ebi
##ohd
##yxn
##mlr
##exd
##rsb
##ksd
##ibv
##ibet
##ibank
##ugv
steam
standard
##plt
##ybj
##ldh
##xxy
##jjx
##crc
##crack
##clm
##pha
##ymr
##ygo
##ejt
##kjx
##kjt
##wsq
##knf
##nnp
##yres
##ttx
##glt
##ddg
##qua
##mpm
##wnu
##qpj
##xplefrostbitecycz
##mrf
##mtv
##mhg
##mfb
##qlx
##wjr
##wfm
##dxr
##boards
enc
##998
images
colum
desig
architect
amazing
lucky
progress
1u
3t
4g
456
6r
62
69
ayt
bric
buk
buz
bbt
bike
cix
dps
eric
ekr
fet
g2
gev
gyz
iab
icf
k2
kct
kkf
lok
lds
mif
muv
owt
obj
pom
ppr
ryw
rjv
sax
sez
sites
tik
tog
tls
tast
ttp
uob
ueb
uef
wand
wsn
wkr
wgb
xe
yup
yug
##doctor
##133
##atz
##asj
##cheng
##chester
##ilms
##abd
##emer
##lect
##adc
##ikp
##ikon
##idk
##acn
##estic
##eston
##ucb
##odk
##stad
##ypo
##ypv
##ypc
##oxi
##uvn
##ufb
##hrl
##eby
##ylg
##ydy
##ydq
##ydg
##kbv
##dld
##uwiugkeq
##ipq
##exis
##mgh
##ibur
##okc
##ubj
##prh
chu
##oyj
from
##ffe
##ukp
##yna
##mno
##qhk
##jjg
##cred
##brn
##ygt
##ygj
##bsx
##kjc
##frb
##mpt
##mpw
##xsx
##wnj
##vsd
##wvy
##wrj
##cjf
##qvf
##kko
##kkv
##mhn
##mft
##kvp
##dvd
##cpt
##dpx
##nrr
##lll
##assa
##yyu
##qwq
screen
##infotech
outs
califor
##eframe
##ilson
future
videos
##ython
##edoor
##stories
product
observer
1z
188
bub
bhh
cef
cmb
cial
ddn
dtl
e1
eup
euc
eqt
fff
g8
gaf
jel
kib
ksr
mmb
mmj
nns
npp
nvr
njh
pul
pir
pxx
roz
rtv
scl
sph
soj
tpl
turn
uuv
wep
wyl
waj
wip
xug
xph
##fir
##ients
##mond
##9o
##9z
##etup
##oru
##ithout
##izle
##chb
##chq
##usj
##ysm
##utd
##utq
##agp
##amc
##lew
##adz
##ixa
##esse
##idence
##foryou
##otn
##esta
##odv
##eqx
##ewq
##maa
##ywj
##umx
##mlc
##ipi
##ofk
##ksf
##akv
##android
##ibk
##prises
##efre
##iwe
##ahq
##ahw
stan
prost
##ffh
##ukc
##ynd
##qhl
##ymy
##bsd
##bsl
##klk
##klv
##klw
##grid
##glm
##jsj
##friend
##wng
##ourse
##ggw
##floor
beat
buil
intel
diario
##enterprise
##undry
1xb
3z
678
94
amt
boss
bfr
bdp
bbh
cuv
consult
dew
dash
dvr
eyb
ect
ecr
err
frs
fore
hid
hdz
iqb
isk
jdb
jenn
kaj
ltt
maw
moy
mct
mck
nuc
ncc
night
pon
put
pent
pyr
ptt
pxv
parts
rvv
rbb
swf
tdj
vital
wuz
xxt
yoj
ysl
##i0
##iir
##loc
##inancial
##oren
##arov
##isj
##rgf
##asg
##ilj
##ysv
##emas
##foz
##agas
##amos
##ingles
##opf
##epw
##hole
##oby
##acp
##ensions
##ifc
##oval
##ecp
##apx
##ucf
##odt
##odu
##igf
##stj
##ehk
##ehost
##axp
##kbp
##ocp
##mlv
##exa
##mgl
##trh
##ubv
brad
##ekd
##ccv
##msc
##ffq
##qhj
##jjp
##ygx
##knq
##knt
##gsw
##nnm
##qsw
##quotes
##whw
##vsf
##cnr
##cnj
##ggx
##mjv
twitter
##qtd
##uye
##uyk
##gbv
##gxr
##mxw
##dxy
##illo
##conf
##atsu
##oship
mountain
shopping
##otte
haus
##color
##insuranc
talent
##anguage
114
3h
a3
aiv
akp
bdd
bdh
cem
cej
ckv
eyx
eev
ewr
ffx
hnb
isn
iuj
ikh
iqn
iqp
jrs
jvv
kix
kuv
mss
mef
might
okp
ocj
ppl
pvv
pdj
pnp
qax
roh
sqh
salt
uul
uib
uss
uqz
vrs
vvr
wps
wgf
wwp
##nia
##iyd
##aim
##xin
##yam
##lon
##myh
##gon
##clu
##518
##9x
##etu
##arq
##aram
##icos
##edep
##rgu
##osion
##abk
##awg
##epm
##epoint
##ogk
##ensh
##ecj
##afu
##aful
##igd
##igator
##eqm
##ebv
##ohns
##mlb
##exo
##exw
##nets
##ayb
##ibn
##evi
##around
##priv
##ycj
##oyr
##ihf
prett
##plx
##msw
##ffg
##counter
##ymd
##brt
##terionirkutskagl
##ytw
##cdw
##wsj
##knj
##knp
##echeap
##ojx
##nnw
##grj
##cyq
##glo
##uhv
##eaa
##khk
##ktn
##krt
##qnt
##cnv
##qjx
##cjk
##dtd
##dtl
##kkd
##kkg
##qtv
##qtg
##zsc
##cfm
##dhp
##gtv
##xtv
##cxr
crim
guid
##linic
##resources
telecom
awes
canon
holiday
##oscow
##omotive
##website
##writers
toyota
original
2z
4r
adl
awn
aoz
adb
bea
c2
coll
dent
dls
dou
gaj
gsn
gyh
hem
hrs
hff
hdv
hdb
heal
iob
imn
isr
jxr
journ
kog
kuj
kkt
kick
lkj
ming
miv
ndr
o7
oyx
oreg
pvp
skb
sgp
sans
safe
sony
tth
vpp
wem
yip
yay
yub
yqv
z6
##bes
##bags
##iok
##hol
##qyx
##kam
##wine
##just
##588
##omr
##omu
##aring
##atd
##icious
##onal
##asin
##asan
##osis
##utf
##addy
##ikal
##ixf
##lyy
##upj
##ovb
##ovt
##irx
##ewb
##ewg
##ufp
##maq
##hrj
##ylw
##ocx
##ywp
##ofu
##ksg
##egh
##egas
##akp
##iby
##efx
##asure
##ekl
##eku
##iwf
##ihq
##plw
##ccw
##coo
##crq
##phx
##knh
##yfw
##yfg
##hsd
##ttv
##qrf
##eaq
iron
##qfp
##xpt
##115
##wrn
##qxt
##qlj
##kfj
##gbj
##cvt
www0
cred
drug
##athome
boost
apart
apex
##struct
##reports
##empire
financ
digit
safeframe
##roadband
profit
creative
ideal
gazet
southern
##tribune
##arcelona
1o
234
4j
5t
aal
aig
agb
bhl
bjx
cax
cwt
ckf
ddr
e6
eif
fns
forc
fbj
gin
geh
gcr
h1
haz
hld
hls
hdd
hdx
iev
imj
jls
kux
kyj
lnb
m1
nrg
nps
njj
nfs
onet
oyz
oms
osc
quv
r4
ryp
syx
swh
smj
tud
uuh
vla
wqb
wond
xxl
yud
yih
yang
ysr
##fel
##mns
##876
##311
##ining
##eren
##orea
##atan
##icd
##icv
##icht
##osz
##emand
##amx
##olet
##awi
##aden
##ulus
##ulation
##unq
##unm
codes
##qod
##afd
##irw
##irj
##imy
##imar
##ucv
##stack
##luh
##eqy
##eql
##ewf
##blg
##oxic
##hrx
##ohg
##dln
##dlv
##ipedia
##rsw
##biw
##udv
##egw
##ayc
##okx
##fang
##iqf
##wwk
##duk
##iwu
##ppg
##pplefrostbitecycz
##ihy
##uxo
##uxu
##mnj
##qhq
##clo
##phe
##phv
##bros
##kjw
##cdk
##wsx
##knu
##yfn
##vvb
##klq
##qsv
##ddh
##yvt
##whv
##qfg
##mbj
##kvj
##wjx
clin
##ckc
##nhn
##cienc
adam
agent
superm
##label
##autom
artist
maxim
hamburg
##omania
##cripts
##graphics
2t
3m
7x
atr
ayn
boc
cym
cmf
cond
dds
dnv
djv
ema
ewn
ecv
fjj
fall
gum
gip
gct
ggf
guz
ggt
hbb
hxp
ieb
iml
ikr
ice
jdj
jbv
kkb
mwr
mmv
nit
nbs
ouv
okb
omg
omv
pns
pbj
ptp
puls
q6
qut
qud
qib
qss
qef
qsn
rds
rfv
rbv
reli
sqf
tbv
wib
wyb
yuv
yij
yuj
yyr
yyv
zur
##eil
##iaf
##mps
##mans
##gur
##call
##etown
##aler
##alis
##aret
##atos
##itude
##abx
##abg
##amon
##ural
##awes
##uln
##ixi
##ixy
##lyq
coast
##ucw
##ewor
##bln
##oxp
##uvo
##ydo
##ywn
##uments
##uww
##ipm
##ksv
##ksc
##roe
##egp
##ayo
##ubc
##uber
##ssv
##ycg
##ppd
platform
##ybf
##phn
##phq
##ymm
##brq
##wsf
##kng
##gsm
##gfed
##nny
##mmu
##cbk
##yhy
##khq
##bbp
##quy
##mpo
##qnq
##cnc
##wrv
##mrv
##mtw
##dtj
##dtp
##wtx
##wto
client
seed
##778
##1234
##answers
##zjt
##138
##vietnam
##ergroup
elb
quality
##ercontent
suppl
disney
soccer
transl
##markets
##valle
##productions
##profit
blackb
youtube
##nfljerseys
2m
6k
8h
8t
aol
aik
awh
bff
bbc
bios
cud
cuh
cez
dtv
dll
eyd
eej
fpt
fnv
flp
gew
gcn
gmt
ghost
hxj
i5
i3
ikt
iqj
jerseys
kax
lind
mev
mmt
mkv
n4
nfr
nnr
oab
oij
ocp
p4
pdd
ptv
qyx
qwn
qwp
qqt
s2
syp
skv
side
sourc
tps
tamil
u8
vas
wov
wez
wwl
xxv
yqr
ygj
zc
zam
##kkp
##wen
##mek
##canad
##inch
##enna
##alar
##esz
##isz
##lama
##chant
##abp
##yse
##ysu
##foq
##amedia
##olj
##olc
##awiugkeq
##iste
##epk
##hots
##owu
##upg
##aclub
##qoj
##otx
##otj
##ucx
##igv
##ivq
##ehub
##ufi
##ohq
##ajh
##mln
##uwh
##uwp
##tsm
##udj
##trc
thomas
##ayan
##okl
##dsw
trop
##shq
##snj
##ihi
##eyes
##ynk
##court
##jji
##clp
##ymv
##terr
##ejk
##wsv
##yfx
##uju
##hsf
##cbp
sher
##uhj
##jsl
##khn
##khi
##mpg
##krp
##xpo
##wrp
##qvg
##246
##cpy
##mvn
##xhw
##uyq
##wft
##boys
##aoq
##kdg
##ciences
webt
webdesign
##viet
smil
##riot
ssb
##ethemes
##perf
exper
associ
##unction
sync
123movies
##investment
##ventures
##information
crypto
hydra
crystal
##affiliates
sustain
2b
247
4v
71
aev
bdl
brs
bls
bbn
bull
ckn
cgn
cqj
cwp
cgj
cgt
dro
die
dlt
dlp
dirt
eaz
eaj
ecn
egt
fdj
ffv
hxv
i4
iop
ipp
jss
jbb
jxl
keb
koc
kkj
kuh
kwn
kasp
lxx
m4
m8
m3
must
nok
nbj
nfv
oux
phs
pool
qyn
qyj
qqp
qqx
raf
rjr
skt
syj
t4
trs
umt
vtv
wag
wuv
wyr
wcb
wcx
xnn
yyp
yeb
yoz
##furniture
##kan
##tube
##9y
##inkl
##atn
##edirect
##asian
inde
##chap
##elw
##abf
##ysx
##amf
##ingl
##leaders
##olb
##epi
##ixl
##hoot
##hows
cog
##ogin
##ardo
##otek
##imw
##ucky
##odb
##stg
##blh
##oxr
##uvq
##ufk
##ebec
##ocrat
##umps
##exe
##rsd
##mgj
##ksm
##that
##nsa
##aye
##evision
##pris
##efw
##dsm
##iqg
##wwb
##yce
##oyh
##iwr
##nlx
##ccg
##ldp
##ukj
##ctj
##yng
##xxq
##coins
##clx
##phon
##ygh
##bsw
##knv
##yfj
##ujp
##gsj
##hsw
##nnk
##mmf
spe
speak
##frj
##franc
##fresh
##ktg
##ktop
##xsv
##yjw
##116
##112
##dnj
##mtc
##qxk
##indonesia
##mfv
##xhg
##xhp
##gby
##xtx
##wbq
##558
##aqw
##outique
##qmq
##loans
##bean
##anna
alliance
leon
##architect
##ecomp
essays
clever
self
gadget
##updates
whatsapp
3n
5d
6n
6h
aav
aib
byt
bhs
bfb
bjz
brok
csl
ecs
eyr
fds
fuk
fll
fnh
fnp
fna
gmb
hht
hnp
hhp
iov
iih
igf
ikl
jess
jnv
kkh
kmj
kcp
lps
lapt
mms
mgr
nvp
oul
ogn
owx
okv
ogp
pav
pnl
pnv
q4
quh
rim
rph
rdr
s3
sws
sgj
tad
tow
tlt
uud
ucv
v5
vog
vvs
wad
wob
wij
wwn
xdj
xtv
yqp
ycf
z4
zoo
##ron
##eon
##aar
##lar
##uil
##mam
##content
##9w
##omf
##etion
##aton
##esx
##izo
##iln
##eling
##emal
##found
##urh
##ikb
##iky
##ixc
##kyg
##upu
##ecy
##afb
##iren
##igj
##ivy
##eqd
dex
##eber
##kbx
##kbc
##mgt
##mgv
##wyv
##inside
##this
##trl
##egi
thepr
##aym
##ayg
##ibt
##okv
##efd
##ekf
chess
##oyg
##shw
##iwj
##ahealth
##snh
stats
##plj
##eyg
##ffm
##psb
##htl
##ybe
##cte
##coj
##mnb
##mnx
##qhc
##jjf
##jjl
##clg
##brx
##iou
##ytl
##csk
##kjf
##echo
##oja
##ojp
##nnh
##qsk
##cyh
##glh
##glk
##yhl
##qri
##qrl
##gnk
##bbf
##bbc
##fra
##ktd
##wholesal
##krc
##qnp
##cnf
##1111
##dtx
##dtc
##dthoodivettewl
##mfj
##mvq
##cfb
##kfb
##ckx
##wbv
##dplefrostbitecycz
##cxv
##bjb
##338
##228
cruis
##acking
##cuit
##gdg
##ateur
##mdg
##zthoodivettewl
##zplefrostbitecycz
forest
##alta
##outletonline
theme
jewel
admin
writing
viral
transport
gabri
##ironment
bosch
##transport
##ortgage
1xbet
3l
7r
auf
ama
aij
ayb
agh
bug
bnp
c4
cuc
d6
d8
dly
dts
dbr
dhs
dfl
dnh
e5
ecd
ekh
eyj
emh
fld
ffj
fft
factory
gup
gex
gux
gkj
gqj
gwv
hhr
hoc
hxr
hhl
handbags
iyt
iuh
izm
jfv
kym
kyv
lhh
lll
lzz
mch
mog
mug
mwp
mash
ndf
nbn
oop
oah
pnr
rpr
rpp
rnv
rhe
s4
s6
syz
scd
swj
swb
sain
tff
tdp
uav
uux
uuj
ugb
vig
vbb
wealth
xht
yon
yul
yqb
yyj
ymh
ykv
ykf
ymz
##fcu
##aul
##tips
##talk
##cams
##custom
##0t
##377
##9k
##omd
##etoday
##laq
##izm
##asz
##elj
##abj
##emus
##utb
##fodsholapet
##avings
##urq
##req
##ulm
##opj
##ixd
##ixie
cov
##upb
##ifk
##otors
##ecv
##ecia
##afn
##ivg
##eqg
##eww
##oxo
##oxu
##ebk
##ydl
##ydh
##axt
##kbi
##aje
##dlq
##dlk
##exg
##udm
##nsb
##ibx
##evh
ccs
##iqy
##iqk
##ycline
tra
##spro
##shp
##iwn
##ahan
##ijp
stl
pron
prosp
ital
##msg
##ctc
##ynf
##ynx
##coal
##crf
##eja
##ejg
##ujg
##gsg
##ojm
##gfx
##hsk
##vvk
##qsc
##ttg
shu
shen
##yhd
##yhc
##yhealth
##yvo
##bbn
##quo
##887
##drb
##whit
##uzs
##vsc
##kpx
##qft
##qjp
##allet
##wve
##iyeoya
##cjx
##qxf
##wpw
##mfn
##qlv
##qlc
##zsr
##astro
##gtd
##ervis
seek
##gxf
##ansas
##qmw
xnxx
##cwd
##incare
moon
##ospit
##advoc
foundation
camer
##register
hollywood
##property
australian
grammar
2k
2p
5n
5j
7z
aad
aqr
agv
bov
baj
bts
bnr
beth
c7
c6
ckz
dpt
ddf
eks
emn
eqh
ekf
edm
fdt
fdf
fxj
fbh
face
ftp
feel
ggr
hus
hob
hth
hxh
hbh
hlp
iyd
iub
ioz
iwt
iqt
jly
jxx
kch
kyt
koj
kcn
kmv
kitchen
lub
lls
ment
mmh
mgv
mint
nxp
okr
pdp
pnt
pages
qqh
qcb
qwh
qmj
qqz
rfj
rbp
rach
recruit
soph
sang
tnn
tfs
ueh
uyd
usn
ucp
v6
vpr
wev
wss
wwt
x8
xxp
xxj
yov
yib
ykr
zal
zim
##rock
##iaw
##iho
##uen
##166
comic
##anf
##etm
##etop
##onz
##onus
##esg
organ
##osen
##usz
##elek
##epb
##epg
##ixq
##owb
##upf
##acb
##ifm
##ecx
##appl
##esting
##sters
##sterd
##eqa
##eqv
##ehw
##oxv
##ufx
##ebu
##ohv
##axe
##kbg
##ywa
##mgc
##bible
##insk
##iaa
##ersky
##ugd
##okf
##okw
brides
##prop
##prings
##efk
##iqw
##ycx
chart
##iwt
##ahk
##ijh
##nlt
stars
##xxc
##cour
##qhv
##jjk
##brown
##yty
##ytj
##ejh
##csv
##cdj
##ujn
##gfk
##gft
##gfp
##kln
##grb
##cbx
##cyy
alg
##8888
##mpk
##qnx
##qng
##fsj
##117
##wrb
##mjw
##mtb
##cjh
##qxy
##anti
##wpx
##mfw
##cfj
##cfc
##gtg
##wlr
##wln
##ainfo
##uqy
##comics
pharmac
dram
##njb
##actice
##2016
##ength
##toys
editor
btc
mining
management
##atures
##iftung
outdoor
insight
##egraph
##ypress
##acional
##investor
cosm
##herald
##boutique
louisvu
##course
victor
coffee
##connection
789
98
aqx
bth
bxx
btp
bits
bags
cch
cyn
cqz
dnr
dfj
eyn
f2
frg
ftv
fbv
gud
gsh
gwj
hiv
hnt
hzz
hao
hzj
ith
icv
jts
jak
jbs
jjh
k7
kiv
kyf
kmr
kill
l3
lts
lpp
mek
mey
mans
mars
nbh
o2
o3
owv
ooz
ogx
qat
qkt
qmt
qcj
r5
rts
sih
sqj
t6
tic
tjs
tpt
tbj
txv
tele
u3
uyp
viz
vot
vnn
w8
wab
waw
wec
xpp
xuk
xxh
xdx
xll
yat
yid
yqj
##aal
##mess
##4all
##path
##136
##199
##omin
##inol
##inum
##inux
##atics
##edon
##rgj
##itw
##itos
organic
##oset
##four
##agx
##aged
##olg
##awm
##deck
##recht
##ulj
##ikd
##epf
##lyc
counter
##ogx
##idan
##obet
##ovw
##ovel
##after
##irq
##ireland
##igx
##igc
##stn
##ivx
##ypy
##ypj
##ewj
##bld
##bll
##uvx
##uver
dek
deals
##ohm
##kbf
##kbook
##ajn
##umq
##dlj
##uwv
##ipj
##ofq
##trj
##egy
##egypt
brav
##ssb
##pru
##ycw
chip
##sht
##shine
##uxi
##ffl
##ymx
##brf
##ytd
##ytech
##knews
##yrx
arn
##grx
##ttn
##uhb
##uhq
##ddn
##ghn
##quu
##dra
##wnv
##ezz
##yjy
##fsc
##cnx
##oola
##qfc
##xpx
##ueu
##ueiq
##wrm
##mrx
##mrc
##qvl
##wpt
##gjn
##qtx
##qtl
##cfw
##ckd
##wbf
##mxj
##wgc
##kdk
##gwk
##9999
##ernment
autop
nrw
carn
vietnam
blogs
launch
##financ
##healthcare
domin
turb
futbol
refer
privat
##hockey
##innovation
1e
3v
4h
5l
7n
8n
8z
aun
aod
aeh
aber
bof
btl
bjv
berg
cwx
drg
djj
dnn
dxj
dzj
dbt
e3
eob
eyt
eqr
eez
eye
fih
fdh
fnt
ffb
gent
gim
guc
gij
gkf
gmx
hts
hvv
hfs
htv
hors
hbx
hann
i6
iir
ieh
iyf
icn
igp
imx
jfj
jeff
kcb
kmp
kank
lyz
lxs
ldv
lhp
mkn
mcm
nbt
o6
oot
okf
pam
pfr
pick
qkj
qmh
qmv
rpt
rbj
racing
respons
suc
sgb
t2
t8
tus
tier
tfr
uap
uej
umm
uyr
ugn
umz
vrg
wkj
wgh
wwh
wmj
wcf
xxs
xdn
xbn
y3
yin
yah
zol
##disc
##9l
##omj
common
##arec
##isim
##edz
##ittl
##elq
##elier
##elite
##ysd
##yso
##utn
##lez
##uran
##deu
##istrict
##oples
##epost
##ixe
cob
##idw
##forma
##forever
##obx
##ovl
##ovg
##otb
##apv
##apg
##afh
##afee
##imq
##odigital
##iven
##ivre
##ypw
##ydv
##ydm
##ohk
##yxg
##kbq
##ockp
##umw
##dlc
##dlife
##ipy
##exus
##etto
##ubx
##wwq
##spe
##qbk
##qbp
pred
##uxk
##uxg
use
##ukl
##ymf
##qqk
##echs
##orte
##cbw
##glp
##ddw
##ddj
##ghq
##khy
##khv
##krh
##qnj
##qpm
##vsv
##qfm
##ggp
##wvg
##wrh
##wrt
##mbc
##cjp
##qlw
##qlg
##gtu
##dfh
##xthoodivettewl
##cvn
##gpd
##ainter
##fvn
##158
##untu
##woods
##conference
##outletstore
##ecker
blues
##arbor
comput
##alculator
consumer
##player
133
2x
3f
3x
4m
5h
5p
6t
6j
a7
a5
a8
aia
auj
amv
bfl
bzh
cig
cqh
carm
dak
dij
dang
dcb
dxp
ddt
dnp
eag
egl
edd
eqn
eqx
f8
fpp
fls
fjt
gix
gec
gcd
gmv
ggv
gwz
gsl
hug
hdj
hnv
hash
iiq
iyb
iqh
ikp
imf
igz
jzj
kic
kst
kqf
kgv
ksl
l8
lnl
lld
m5
mgn
mqp
nod
nph
nbv
oox
p2
prg
pts
pier
pxt
ptl
plac
qer
quj
qkv
qcv
r6
rtr
rjj
rbr
syt
sqn
sqt
scx
til
tif
tjv
uab
uub
uoj
vjj
wur
wek
wsh
wmp
wwj
x6
xzj
yit
yuf
yyz
##dar
##a0
##mate
##cards
##611
##9g
##alj
##oreg
##atlas
##isx
##itim
##chv
##ilia
##iliat
##ostr
##avu
##aml
##amaz
##awo
##dez
##repl
##unlimited
##epu
##eclass
##estyl
##estream
##ivk
##ivc
##ypd
##eqb
##blx
##blp
##uvb
##uvt
##yln
##ydj
##ohj
##axh
##uwe
##uwg
##wyn
##egx
##efit
##ycv
childrens
##oyb
try
##spt
frank
##qhm
##crafts
##phj
##ejp
##wsk
##kny
##yfm
##gfh
##yrw
##glj
shin
allt
##yhn
##qrt
##jsv
##qui
##krf
##ourt
##vsg
##ggb
##xpv
##iyk
##mjb
##qxj
##wpj
##qlh
##kvf
##dvn
##cpc
##mvf
##xhy
##uyi
##gvh
##ckg
##wlt
##wlm
##0000
##ainer
##uqd
##aqa
##llh
##jrn
##jrv
##raine
##jvr
##mdk
##2015
opin
openc
quiz
autod
toky
agro
buys
polic
##metal
loubout
verlag
##housing
##econom
##plast
streaming
##folio
katesp
protect
##american
highl
3j
5g
7v
a4
ail
aaj
aih
adt
agj
b6
bok
bcc
btt
bhp
cqb
cmn
csc
consulting
dil
dif
duc
dub
dpp
dpl
dfb
djp
dlh
eet
eir
eah
enl
ewv
egp
fis
fnj
fxv
fxr
gcc
gyv
gate
ggz
glam
hok
htp
hlr
iid
icd
iwv
jab
jff
jhh
jorn
kow
kof
ksh
kkr
kmt
lbr
ldr
ltv
muf
mml
mok
mqj
mcv
mmz
nhh
nhl
ogh
ogj
oqt
pnn
pxs
pear
pxj
pets
pure
price
partner
q8
qix
qid
qeh
qqf
rech
rdt
rxh
rnh
skf
vst
vff
vdv
vbt
wgn
wwv
wgv
xpr
xjr
yel
yav
yob
yox
ymf
yqt
ymv
zzj
zero
##full
##aib
##york
##masters
##322
##omx
##omg
##etime
##enburg
##orate
##itf
##itic
##chaft
##amw
##amj
##ingth
##olly
##dela
##adj
##adget
##opro
##ixj
##essa
##esst
##ardware
##acz
##acil
##ifts
##afp
##ucu
##odw
##eqf
##ewx
##oxw
##uvg
##ylj
##ydb
##axv
##ocf
##ywf
##ywy
##umk
##mgw
##ksy
##roq
##roker
##egoc
##efq
##iqx
##wwo
##yck
##ekv
chap
##ppm
##uxb
##ybv
##yno
##coz
##jjm
##clc
##phi
##bsv
##knb
##ujb
##ujh
##gsf
##ojq
##oju
##vvp
##qsx
##mmy
##yrn
##uhw
##ddb
##jsq
##bbh
##bbk
##bbt
##frx
##frp
##ktp
##wny
##wnp
##ezi
##qpf
##cng
##qjg
##mbt
##wxg
##kkw
##mhj
##wtv
##mvp
##cfh
##gtm
##gtp
##wfg
##wlj
##erto
goq
##enders
##rrq
##etsu
freem
flip
elm
supp
##olding
dvd
centre
africa
##eriod
labs
naij
##oplus
##aplus
##experience
absolut
##enefits
055
4z
agl
agx
aft
adz
bog
bld
bfv
bfp
bjl
cyp
cyx
ckb
cyz
cux
cyv
core
dag
deh
e8
een
eel
eav
eul
eig
eyp
ewx
edw
ecz
ebook
fap
fhs
ged
gss
gyn
gwr
gkv
hjj
hxs
hear
hlt
hnx
i8
ief
iyh
iyv
imr
igj
iwj
ikf
jug
jld
jfr
jtv
k6
k5
k3
kre
kex
kyb
kcr
kang
kcj
kqv
kua
l5
ldt
lnt
m7
mup
mcp
mwj
mmx
mtv
npr
nfp
njp
oog
oaj
ocb
ogv
osl
pht
pjj
q3
qyp
qev
qkp
rss
rvr
reach
skn
sqr
tld
tdb
tdx
u4
uov
uml
uyv
ump
ural
v2
vns
vxh
vvn
wch
waf
wyz
wqp
wmf
wqt
wcv
wkx
x4
ymn
yej
ycb
yyh
zar
zjs
zzs
##dor
##night
##iis
##low
##omc
##inopr
##anq
##erst
##etj
##atem
##icm
##lai
##asts
##ilver
##abv
##utes
##leader
##olq
##olife
##epv
##ovd
##blt
##ebg
##ohy
##ayf
##prb
##prj
true
##qbt
##msa
##psx
##ybc
##ukv
##ynm
##qhd
##crv
##cruit
##clk
##clw
##ujx
##gsb
##oje
##mmd
##mmc
##grv
##cby
##cbh
##ttk
##ddp
##yvj
##gnh
##ghu
##ghc
##bbx
##quiz
##ktq
##880
##krn
##yjq
##kpt
##kpm
##qfb
##wvh
##mbv
##mjq
##mjp
##cjq
##qxb
##anton
##dtn
##xhj
##wbm
##kxw
##bjr
drag
##wgk
##oftwar
##qdk
root
##viagra
skill
##issert
##urse
instagram
contact
##mobil
##domain
bonus
decor
careers
ultimat
##collection
iphone
##munications
08
139
2f
4n
6b
6z
6p
aes
aiz
aem
ayr
ayh
agp
b7
bxp
bdt
c5
cqf
cwf
cgv
d4
dph
duba
eiz
euf
eoz
ewp
emz
eagle
fbb
fnb
flt
ffn
fors
gyf
ggb
harm
ies
iul
ikb
iyn
iql
igb
jth
jev
jnn
jxs
jez
kus
ksp
kkx
lvv
ldp
library
m2
muk
n2
nep
nnt
nick
nutr
oix
oez
paw
pjp
pocket
qil
rnj
rtp
rena
syf
sgh
sgv
smz
txx
tbs
tbb
txs
tnv
tll
tft
uaj
ugf
ucn
umr
vld
vhh
vlt
vjv
wqr
wqj
xing
xls
yos
yuc
ykb
yyn
yuh
z8
z1
##iav
##qut
##wave
##688
##0r
##314
##alive
##arep
##abit
##awx
##awj
##award
##adam
##unny
##obv
##stk
##stm
##azo
##oxe
##hrk
##hrv
##ohi
##axj
##ywe
##umes
##ipf
##ipw
##exico
##rsf
##wyb
##iay
##thd
##trt
##akf
##ibei
##ubq
##ubg
##prv
##prime
trail
##shn
##iwb
##ahost
##ppv
stad
stay
##eyq
##msl
##psd
##ctm
##mnu
##jjc
##phys
##pharm
##ymu
##ejm
##wsg
##grt
##cbm
##ttc
##ieo
##yvk
##ktl
##whm
##ezone
##yjn
##uze
##fsd
##vsl
grav
##kpv
##wxd
##mjx
##mjh
##mtm
##cjv
##wpm
##gjy
##kvw
##qtn
##mvg
##gtx
##ptx
##pton
##dbj
##77a
##128
unis
##6666
##kxy
##tll
##dmc
##yqc
##22a
blood
##apple
##ustin
flight
##isse
white
conv
##peace
redirect
##iasm
films
##epharmac
##unner
kiev
##hentics
faith
window
##porno
latest
grupo
gorod
##without
youtub
virgin
##explorer
2j
aaz
aoj
aqn
aqf
agg
awx
amx
australia
bdr
boo
btv
bll
bzz
bnb
birk
c3
canc
cif
cml
cex
ceg
cij
ckt
cmj
cmh
ddv
dfv
dzz
eud
ekn
ewh
emj
ewt
fbr
fdb
gis
ggn
ggj
gcf
gzz
gratis
hul
hxt
hll
hbt
iad
iix
iij
jnt
kij
kgn
kwv
kqx
kwf
linc
llx
lrp
mts
mmr
n8
ndn
nzz
nnb
njt
oww
oqj
okx
ocz
ply
pnj
q7
qov
qaz
qsp
qyt
qcd
qwv
qql
rps
rbs
skl
sqs
sgn
smp
smv
siam
tdh
tnp
tfj
tong
tennis
u2
ugh
umv
vdd
vzh
verm
w4
wing
wul
wub
wih
wyf
wyh
wqx
xnl
xtp
yet
yed
yiz
yow
yot
yml
yex
yef
ywr
ymt
ywb
ykz
zdj
##easy
##aic
##wang
##will
##price
##photo
##366
##321
##ince
##enie
##atro
##esy
##esort
##uster
##elit
##abn
##ablet
##fold
##olan
##olis
##awy
##reens
##adk
##epq
cover
##idz
##idor
##forth
##obq
##upq
##ifestyle
##ecg
##imited
##igk
##stf
##stech
##ivw
##luu
##ewd
##azt
##azette
##uvi
##ocu
##ocer
##dlg
##ipal
##mgb
##offe
##wyr
##wyh
##thg
thai
##akery
##nsq
##nsk
##andj
##ugf
##ycb
##ycar
##shub
##iwi
##snt
##nll
##ihj
stre
##plg
##msv
##uxj
##ybk
##ldx
##ctd
##xxd
##phu
##ygy
##ytn
##qqi
##kjl
##knx
##ujq
##ujv
##gsd
##gsv
##gsc
##yrf
##yry
arb
##cyj
##uhk
##eai
##khb
##khg
##kto
##wnq
##wnt
##yjk
##vsm
##cnt
##qjt
##dnt
##mbx
##qxg
##wjg
##dfj
##gbf
##gvw
##gxj
##121
##dxn
##fvf
##44b
##illion
##ackers
##cwk
##auer
##athe
flat
##350
proz
##ingservices
autob
zha
carl
bests
##itters
magnet
##marine
##eprint
columb
##ecompany
moder
sunn
##logic
everything
yeez
thedail
##igeria
entert
building
downt
##technology
04
2l
5z
7p
aif
aeb
aex
amg
ayj
bem
bhr
bdb
bnv
bnj
cyd
cwh
cmr
cgx
danc
dap
dhr
dib
ein
eis
eid
eax
ewf
fxs
fhh
fzz
gax
goy
ggl
gkr
gcz
hif
hhs
hdr
iit
iuv
iud
iuz
iwr
igx
imz
jaz
jxh
kcc
kqn
kmh
kmf
kitch
lpr
ldf
lxt
lvt
mow
mcj
njv
njl
ool
oaz
oud
oyn
oyj
owr
omj
okz
ober
pnb
pbp
pjt
perm
penn
partners
q5
qyf
qyv
qwr
qmr
rin
rhs
rbx
sow
suw
sux
skd
tric
teh
tnl
tjt
ucd
uqf
uoz
via
vbs
vpt
vfj
vvl
w6
wig
wcn
wmb
whh
wkz
x3
xts
xns
xfr
xdr
xfl
xdf
xnr
xrr
y4
ygf
z5
z3
znj
zfj
##nal
##oap
##oak
##0o
##enq
##enza
##orch
##orec
##ican
##only
##lays
##izn
##ization
##asar
independent
##osoph
##usercontent
##foe
##agec
##agro
##olol
##awks
##reo
##adf
##ulq
##ikw
##ikc
##eproject
##obp
##upy
##otp
##otan
##afq
##afv
##ucq
##ucm
##standard
##ivan
##eqe
##bler
deg
##ianet
##ydc
##kbe
##kbu
##kbm
##ajv
##rsg
##mgx
##thq
##trad
##nsd
##ayi
##ayv
##ugi
##ubw
##ettings
##ekw
##spn
##iwq
##ahc
##snf
##qbq
##nlv
##plh
##msb
##hty
##ybn
##cto
##ctp
##jjd
##clr
##clip
##ymq
##ygroup
##ejw
##lsv
##knw
##yfp
##gsk
##ojy
##vvh
##vvt
##vvm
##kland
##nng
##qsm
##grn
##grc
##gnf
##ghg
##khw
##khj
##whb
##kru
##uzu
##kpn
##kpw
##kpj
##wvb
##wvq
##wvp
##wxk
##mjf
##antes
##mhk
##gjb
##gjg
##gjp
##qln
##qlq
##cpv
##gtl
##wfk
##xtw
##cvj
##gpw
##33c
##meu
##dcw
##qwiugkeq
top10
##png
##ample
newt
soul
parent
##orrow
##interiors
##proj
keyw
##erfect
catal
loan
western
multip
##impact
##unning
##aviation
##eekly
benz
knowl
2w
4l
7f
7k
8x
8v
alu
aqh
agf
aqz
bbp
bonn
ciz
cun
cpp
ckj
cuj
cqp
dod
dxx
ddb
dnt
dpv
e7
eil
eqf
f6
fid
fnl
fps
fxp
gag
gyl
gcb
gkt
h7
hbl
hfl
hbp
icx
jdr
jfl
jlt
jhp
kgt
kgp
kath
lht
lph
lyj
ldh
lnv
lvp
lott
muc
mqb
moscow
nes
nhr
nnj
oon
oup
oks
ouh
pxp
pics
qqv
qcf
qkz
rtt
rdd
rxt
rnp
skp
swp
sach
tdl
tds
tph
uup
vvh
wim
wct
wcs
wyj
wmt
wgj
wwb
xtt
xfj
xxr
xhx
ying
yaj
ysh
ycr
##iim
##aho
##aef
##gis
##cut
##355
##omon
##erth
##etf
##atw
##ilx
##elearning
##emart
##emont
##emarketing
##avx
##aving
##avers
##inge
##leq
##oline
##opb
##ixun
##ogistics
##forward
##obg
##ifen
##ecz
##ecam
##apw
##afg
##ucg
##ivh
##ivia
##ypal
##blv
##make
##hrb
##hry
##ianz
##ocat
##ywl
##ipb
##ipv
##mgm
##ettr
##iera
##thy
##trv
##egv
##andm
##ugx
##ugy
##ubp
##ssd
##shan
##shen
##ihm
##msm
##uxd
##uxl
##ukw
##xxg
##crypt
##ytb
##csw
##lsx
##angl
##wsa
##knowl
##vvg
##qsg
##yrh
##yrv
##yrj
##grl
span
##ghv
##jsb
##jsw
##bbg
##ktj
##889
##mpa
##xsf
##kra
##qnb
##fsl
##ooq
##kpk
##qfw
##xpj
##dnews
##flv
##mrb
##mry
##mrw
##qxl
##qvk
##iale
##24s
##qtj
##kfq
##cvl
##125
##122
##oua
##dxb
##boost
##erta
##nvj
##iteo
##iship
##ective
##srq
##apparel
##767
marin
marsh
control
##etrans
apk
##node
mini
minim
gamer
inters
realty
designs
ebooks
login
university
rayb
mercedes
##status
##wellness
information
atlantic
##onavirus
kaspersky
##ospitality
2r
4d
4w
6w
7h
aam
aup
aov
aef
aqp
awj
akz
apn
bps
bdf
bxl
boston
cag
cyl
cgl
cyh
cqr
cwn
cql
cgp
cwb
dth
eun
eyz
egf
eyv
ekp
ewb
ekx
ekz
fine
fdr
fvs
ffp
gyt
gmp
gwh
gwx
gwf
gwb
gkz
hey
ias
iaj
iux
igv
iwz
j4
j8
j1
jbl
jdl
jlr
kys
kcf
lns
lef
lxr
llp
masters
n3
nis
nur
nbc
nxn
o4
oyp
oml
ops
oqh
owp
owj
pis
pdt
pfv
pjv
paint
qun
qmn
qqq
qgp
qkx
rff
rls
rfr
s5
sqx
srv
trg
tatt
tbr
ttv
tzz
uad
uot
uum
uev
uqn
uyj
ugv
ved
vak
vnl
vht
vdp
vfv
vxr
vtp
wup
wof
wud
welt
x1
xdv
xjv
y5
y8
yom
yim
yax
yev
yqn
yqx
youth
zor
ztr
zuk
zzh
##famil
##dan
##uur
##myt
##gift
##224
##omv
##aland
##oner
##esq
##islam
rust
##itek
##chj
##iless
##elon
##abox
##avor
##again
##leu
##lein
##istol
##ixk
coco
##obn
##ovet
##afz
##stb
##ewatch
##blb
##oxn
##hrq
##ebw
##ydn
##axb
##yxf
##yxj
##ocg
##mlq
##wyj
##iai
##tha
##truck
that
##ayj
##evt
##sshop
##promot
##iqe
##oyun
##iwg
##ahb
##ahy
##ppf
##ppb
##ijw
stj
##msj
##uxy
##ffu
##ukx
##ctx
##ynamic
##crt
##phl
##brl
##ygp
##bsc
##kjp
##lsl
##lsj
##wsb
##ujy
##klj
##nnb
##nnt
##grq
##glob
##ddq
##yvg
iris
##mpx
##xsl
##whg
##wheel
##krw
##yjc
##vsb
##kpg
##wvm
##mbk
##mtd
##dtk
##wtw
##qlf
##kvg
##xhq
##kft
##gvb
##gpu
##ckw
##wlw
##667
##djx
##kxv
##intech
##vnf
##kcq
const
##ursos
peac
worldof
general
xvideos
doug
##editor
lyrics
recipes
voic
##emoney
break
gateway
##motion
hyund
tablet
jewish
entre
pictures
diamon
##medicine
##preneur
3b
5b
6d
ayz
amj
awt
agt
btr
bft
bxv
burn
c8
cyf
cgs
ckl
cgh
cgb
culture
dxs
dxt
dbv
derm
eop
eap
eyf
egn
eqv
fib
fjs
ffl
fjn
fye
g5
gkn
gyj
gall
gallery
hfr
haber
iex
iyr
iez
jnh
jft
jdz
kip
kwx
kgx
lul
lbb
mkb
mgb
nih
ndv
null
navi
oit
oys
oeh
ooh
oev
ocn
omf
owz
p8
patt
qgv
qsl
r3
rol
rhr
rvs
rdh
rlr
s7
smn
skk
swl
scz
smo
sunglasses
tir
ttr
tpr
tdn
tell
tnj
tfp
tbh
tjh
u0
uun
uoh
uyf
uyh
uez
uqv
vts
vjr
vbp
w2
wej
wmh
woman
xld
xbb
yaf
ygr
ykh
zub
zjr
##find
##dal
##dos
##iik
##ooc
##cly
##cow
##4me
##pas
##0n
##orz
##atus
##atek
##ongg
##isq
##lade
##edral
##chocol
##oser
##usg
##ysy
##avp
##awq
##opes
cof
cole
##qof
##qoc
##ifq
##ovx
##apd
##ircle
##ucy
##odq
##odesign
##ivil
##ehc
##blk
##oxa
##oxg
##uvd
##uvh
##ylist
##axf
##axn
##axl
##yxd
##kby
##ajp
##ywb
##dles
##mlh
##bii
##rooms
thom
thesp
##ayk
##ibw
##okq
##ubf
##evx
##prx
##prt
##inals
##iqd
##ycf
##ycon
##duo
##iward
##iworld
##ijl
##qbw
##qbg
##plv
##uxq
##ynw
##ynow
##cln
##brv
##brothers
##ygb
##ytg
##ytimes
##ejv
##kje
##lsf
##wsd
##ojn
##gfl
##hsx
##klf
##klmn
##qsf
##qsa
##qsl
##glx
##ghy
##queoya
##88b
##uzi
##cnh
##qfk
##qfj
##11b
##wry
##fll
##flowers
andr
##mrq
##gjl
##wtl
##kvh
##dvj
##cpx
##cpw
##gtn
##xhb
##xhv
##wjn
##wjt
##kfg
clients
##wfe
##cvb
##dpg
##kxk
##uqk
##uqg
##nrv
##nrp
##guo
##yqg
##369
dress
##intel
##qwa
##hpx
##srv
orange
##990
##vtc
smith
##ingservice
wher
quot
viet
##aysia
##oveis
##inese
##ecode
##ucket
install
advert
##ersonal
##optim
levitr
richard
tutorial
update
##generator
allabout
2c
29
5f
7j
800
aic
aas
ats
aqs
aez
awv
adf
ahh
b3
bph
bdv
bxt
bdz
bvh
bhx
ceh
ckh
d5
djr
dxv
e4
eab
eut
eox
eeb
eum
ewz
fdd
fdn
fxt
fvr
fhl
gang
gmh
gcx
hrg
hdw
hfx
hvr
ius
iks
iqf
icj
ipv
jjs
jdt
jdh
jxt
jsr
jump
k4
kuf
kyd
kqb
kgf
kmx
l1
ltr
lzs
ldb
ltl
lxv
meq
mqh
mqn
mgj
nbl
ncs
nzh
ndz
oat
oqv
ogb
otv
ogz
puw
pdx
pbv
qaf
qip
qsh
qyr
qgn
qmb
qgj
r8
rns
rjs
rdf
rdx
rxv
sma
sks
ssk
t5
t1
tpp
tdr
tfv
txl
tsr
uct
ucj
uqx
umf
v7
vhs
vxv
vfx
ville
wac
wiv
wws
wgr
wcp
wgz
x2
xdp
xnv
ywt
ygv
ycx
ygz
zan
##run
##iup
##ioh
##hill
##oes
##oir
##village
##wing
##ufo
##uep
##jordan
##520
##0v
##etesi
##alw
##arkt
##atas
##icas
##oned
##lau
##rgb
##rgd
##izy
##izl
##abw
##agv
##agj
##amag
##replic
coh
cott
##ogeoya
##obf
##ardin
##qoz
##ovp
##apu
##igon
##luq
##ehf
##ehosting
##blanc
##uvy
##iants
##ebusiness
##ywk
##dlf
##dlif
##rsa
##ofen
##thb
##trd
thu
##aken
##ibes
##ugq
##ubk
##evy
##prw
##prints
##oyi
##iwm
##iwiugkeq
##qbm
sta
stack
story
##pll
##ccq
##ffc
##ukd
##jju
##crn
##ejn
##ejl
##ejq
##knk
##gfc
##vvx
##vvl
##mmw
##cbq
##glg
##uhn
##uhm
##yhv
spin
##qra
##qry
##khl
##khm
##884
##882
##drc
##whq
##vsk
grac
##qfl
##ozs
##mjl
##qvh
##wpd
##wpk
##mfh
##mvj
##cfn
##xhf
##wfp
##cvm
##gvp
##gxl
##dxg
##boa
##yqw
onlines
##xjt
##asha
orient
##viagr
##moi
freet
##qcq
##issa
element
soun
maison
blogspot
##freedom
##ietnam
##archives
##workshop
##minds
join
thebest
##region
##iative
clev
labor
silicon
##equipment
##embers
##opping
fitfl
impact
honda
##queen
##vention
passion
escort
cedexis
##courses
##abetes
##ecialist
engineering
nikeairmax
katespade
2v
345
5v
6v
8j
aoh
aco
acj
awb
adc
bly
bxh
cuf
cyj
ckp
cwj
catch
corr
d3
dbb
dgj
dvt
dvh
ede
eip
enn
earn
f7
fus
fhr
ftl
fzh
fjr
fbt
factor
gwn
gqp
gmz
h4
htl
hzh
hfh
hpx
iom
iox
iax
iug
ikj
igs
iwl
icm
jog
jst
jht
jdx
jbh
jvt
jsl
keh
kek
kwj
kcv
kwb
lbl
lud
lnp
ltp
lvl
mcx
more
mcg
n6
njs
nnh
nutrition
omp
ogg
owb
p6
pth
ptr
pdn
pdb
pain
pfb
qing
qif
qiv
qox
qwx
qwf
rbl
s8
s1
tly
tfl
table
uol
uep
uyz
ugr
umh
vth
vph
vls
vdn
vdt
vfb
wop
wqn
wkp
wien
xdt
xlt
yol
yct
yqh
ykt
ymp
zds
zbr
znv
##rights
##i9
##iin
##iut
##xia
##history
##tec
##ued
##gir
##0l
##etry
##orod
##edq
##chile
##child
##chule
##agw
##agne
##amv
##ured
##awd
##reader
##ixm
##forlife
##forkids
##acer
##ovk
##ovir
##otq
##odz
##ivel
##eward
##azu
##ehj
##blq
##ylc
##ydw
##ajx
##exn
##rook
##wyk
##iae
##udk
##andth
##okd
bra
##evg
##prq
##efun
##avenue
##duq
##oyn
##ships
##sng
##qbf
prime
##ccm
##msq
##uxr
##uxv
##psych
##ynp
##jje
##clb
##phere
##brm
##ejf
##angels
##ojh
##ojt
##gfq
##gfw
##hsv
##cbt
##yhq
##ddk
##ddm
spic
##jsk
##eaiugkeq
##drh
##mpd
##mpj
##xsc
##wha
##krm
##yjg
##yjp
##ggc
##wvt
##wvj
##flp
##mjn
##qxn
##gjx
##kvr
##kva
##kvx
##kvt
##xhd
##dbk
##cko
##gxv
##mxy
##mxl
##kxj
##bound
##ertech
##illing
##wgd
##fjp
##18s
##cgq
##rrn
##cwm
engl
##mwq
##vrn
ntj
##ampa
autoc
##ungle
##noe
switch
mount
buyv
after
moto
canal
##rewards
##ebrity
teams
##umbers
##watches
##checker
micro
oakleys
##digest
##gazette
##illiams
timberland
2d
7d
aqj
aqv
awl
bent
bnh
bvr
bild
cus
choos
cah
cqt
cmv
cwl
cmz
dul
ddh
dnj
dach
eib
eub
eih
egv
emd
fhp
flag
g1
guf
gkb
gef
gmr
hag
hho
hps
hfv
hzt
hnz
henta
iun
iep
iqq
igh
igt
iwb
icloud
jhr
jhx
ked
kyp
kyx
kmz
l7
lew
leh
lfr
ljr
lft
lfb
ljv
mkj
mwt
mcz
nsk
nxv
nich
ninj
o1
ouj
owh
owf
oqz
pov
poc
pzj
ppx
qld
qgl
qkf
qcx
rdl
rib
rdp
rnr
ryq
rfb
rjp
rdz
rlp
resp
sps
scm
skz
save
ted
tlu
txp
tdt
txj
tnb
umg
uqq
uwh
uqp
umj
ugt
umx
v8
vdl
vtt
vbv
vpx
vrt
w5
wcl
wcj
xbl
xds
xtl
yof
yyc
ymj
ygb
zho
zdf
zhl
zjp
zhx
##dav
##dail
##iow
##i55
##577
##533
##pin
##0w
##0g
##9q
##anov
##anne
##erman
##alks
##atf
##icq
##icw
##onde
##esonline
##isor
##laws
##iton
##chet
##chip
##challenge
##elter
##ysz
##agar
##lead
##olina
##awb
##adol
##adult
##oport
coz
##ogb
##idf
##upi
##acx
##acv
##ensk
##otm
##ecf
##afar
##uci
##stage
##staff
##luz
##ypto
##ewc
##bli
##uvm
##uful
##ebt
##ywg
##ywiugkeq
##uwr
##ipro
##iptv
##exb
##ofts
##roof
##akj
##akm
##andel
##evp
##wwiugkeq
##spx
##spar
##shj
##iwd
##iwc
##qbc
##htq
##htg
##ybw
##ldk
##ukf
##cruis
##clh
##brh
##bsj
##knc
##yfy
##qsb
##yrk
##cbe
##tte
##tthoodivettewl
##glv
##yhb
##yvn
##qrd
##gnt
##gng
##bbd
##frog
##ktc
##mpv
##xsq
##whj
##qnm
##fsb
##vsj
##wrx
##wrk
##ceo
##dna
##mbn
##iyat
##wxl
##mtq
##cjy
##qvp
##gjt
##indir
##qlm
##qlp
##ellers
##cpd
##cfv
##ptv
##kfn
##kfm
##wfn
##gpk
##wbh
##gxd
##djr
##mxq
##boom
##4444
##compl
##jrq
##180
##xlt
##fbn
##goods
##gwc
##ultura
##568
##loan
##qgk
israel
quint
gsm
supr
greek
radios
##argent
assignment
##rewery
##unnel
##infos
senior
johns
##utorial
myftp
affili
william
##estudios
##wheels
columbi
5q
7b
7sb
8f
8r
ahs
acb
awp
agz
b5
bnt
bfj
bjb
cort
dab
dire
dnb
date
djh
dzt
dhx
dlr
eit
eov
eod
eeq
eeh
emg
ewj
evr
f4
fph
ffh
fjh
fight
fvl
g6
grat
guh
gqx
gwt
gcv
h8
hos
hzs
hjv
iiv
iuf
iah
jrg
jtt
jfp
jbt
kes
kks
kss
kms
kqp
kqj
kwt
kqt
kgb
kcz
kenn
lel
lek
lij
ldn
lbt
lhl
lrh
mqt
mgz
nec
nnl
oav
oap
oqf
oqx
pfl
pnh
qot
qap
qij
qcl
qez
qgt
row
rth
rhh
rxj
rfp
rvp
sgs
sgr
scu
secon
summit
t3
tvv
tail
tnr
tlx
u7
urg
uop
uts
uyt
ugl
ucx
viw
wut
wuf
wmn
wkl
wgx
wwz
xhh
xnh
xjt
xjx
xjl
y2
yop
yiv
ykn
ywp
ycp
ykx
zzp
##dir
##dental
##wich
##358
##178
commun
##inho
##erq
##icg
##item
##izabeth
##osmetics
##usw
##emade
##utm
##olice
##epts
##lyk
##essor
coupons
##idade
##qoo
##afj
##estling
##azan
##blj
##oxm
##oxet
##uva
##ydz
##ajb
##uwo
##uwc
##biu
##wyf
##thl
##thv
##thes
##egar
therm
##ayu
##ibm
##ugb
##formation
##efp
##ycz
##due
##oyq
##spo
##spm
##ppj
##snl
##plk
##ccy
##ffk
##psj
##htw
##htp
##ybt
##ybp
##ldn
##xxo
##cri
##ymo
##ymc
##ioz
##ojd
##ojg
##cbo
she
shak
alh
##yhf
##yve
##gnp
##ghj
##jsf
##jsg
##quz
##quart
##drt
##xsk
##whc
##qna
##yjh
##qpb
##qpy
##fsw
grab
graf
##qfd
##qjw
##ggy
##xpq
##mhq
##mfx
##asta
##mvl
##cfg
##dha
##dhg
##wjb
##wjp
##kfp
##dft
climat
##gbn
##gbo
##xtj
##7777
##gxq
##127
##dpw
##mxk
##uqw
##aqg
##comic
##bvn
draw
##1688
##intelligence
##gwd
##lounge
smarts
scal
boom
construction
newyor
everg
slot
##hope
casa
muench
foods
sunr
lyric
micha
pref
script
##rokers
cartoon
##balls
manga
avto
##windows
electronic
moncler
##travels
##growth
raybans
168
137
aos
aep
aot
aox
aml
aok
aah
aqb
aph
ayf
aaa
ahl
bost
bvs
cmg
cds
cyg
dtr
dxy
eql
ecf
f5
fro
final
gks
gqb
gkp
gql
h3
hunter
iav
ioj
iwf
ikx
j7
j3
jjl
kyn
kcd
kmb
l4
l6
lhr
lrs
lyc
lah
lhs
ldd
lfv
lbp
llh
like
mgp
n1
nlu
npl
nxx
ndh
npt
nfj
njx
nzp
oob
oub
oyf
oqn
oqp
ocv
pph
pbr
pzz
pfh
pdz
pvt
pbx
pvh
qin
qim
qyz
qgb
qmz
r2
r1
rag
rdn
rdv
rzz
rxl
rlt
rjx
sla
sqb
sgl
source
tbl
tah
tdv
tlh
toms
uet
uaz
uqb
uqh
ucs
uwl
umw
vand
vds
vbj
vxj
vxl
vhl
wyc
wwr
wgt
wqz
x5
xhr
xps
xzh
xnb
xjp
yoh
yoy
yux
ycv
znh
##bao
##dit
##iip
##iyb
##aine
##hunt
##g33
##438
##654
##313
##anst
##aras
##atoday
##isone
rush
##rgw
##itur
index
cns
##eleb
##abroad
##emk
##utj
##foy
##amiq
##lea
##olink
##unit
##hoff
##ogc
##idet
##acco
##qoy
##ovj
##richt
##ecm
##rated
##ewar
##ehom
##blc
##oxf
##uvl
##ylf
##ohb
##yxb
##kbd
##ajc
##ocation
##ywo
##dlm
##uwl
##ipur
##exl
##ettes
##wyq
##iau
##udq
##thw
##egk
thecr
##akw
##nsf
##andi
##andg
##atta
##ologie
##evk
##prd
##prim
##ederland
##oyy
##oym
##snv
##nlp
##eyu
##uxf
##ukg
##crw
##ejc
##bsf
##qqe
##ujl
##ojf
##ojb
##gfi
##nnc
##yrl
shir
alr
##ddo
##khc
##ktf
##drn
##drp
##mpq
##whl
##fsf
##qjl
##mba
##mbp
##flh
##cjt
##wpv
##mhw
##wte
##cpf
##mvx
##dhj
##xhm
##kfh
##dfv
##dbt
##dbv
##gbx
##xtl
##cvu
##wbt
##dpf
##wlx
##669
##boat
##uqm
##aqk
##aqm
##nrh
##ykc
##guin
##guild
##dmd
##zhi
##jrb
##jrj
##fjt
##xjb
##dwd
##gwq
##fxf
##fnx
##15s
webcam
beibei
##qdg
##apper
##qko
##wmq
techs
boots
##ermag
swift
peak
##carr
salv
bookmarks
sexe
loans
80aa
camping
kamagra
albert
##creek
##enerator
thisis
beyond
canadagooseoutlet
champion
144
3q
5x
5k
5w
6x
6l
8q
aan
aat
aon
aob
aac
ayl
auh
ayv
awr
akx
awz
bxs
bzj
bxr
barn
cqq
cwv
cqx
dld
dvv
dzh
dfh
eug
eww
eqz
fang
gmn
gqr
gkh
gmj
glas
h5
hdn
hfb
i7
iis
iac
iaz
iyx
iqx
iqv
idc
j6
jzs
jvn
jvj
kkp
kql
lnh
lnj
lfh
m6
mau
matrix
nmg
nht
ndt
nvn
nhn
norton
o5
oip
omt
okk
ocx
p5
prat
pdl
pdr
pdv
pfj
patr
qiz
qav
qul
quf
qah
qkn
qwt
rok
rld
rxs
rfs
rnt
rft
rpn
syc
syg
skh
swx
sqv
sqz
tbt
titan
uem
uax
uyx
uok
uih
uwn
uuz
ugj
uqt
ucf
v3
vor
vtr
vxp
vdb
vvt
vse
wyp
wuw
wqh
wyv
wkh
want
wcz
xdl
xpl
xdd
xnj
xlp
yiq
ygh
ygp
zus
zxt
zbj
ztv
##bear
##baby
##dyn
##iit
##iun
##iuf
##i25
##i35
##755
##zgn
##566
##266
##0m
##858
##324
##etas
##alace
##arac
##aten
##edor
##edef
##rgc
##asport
##children
##ilit
##elz
##elike
##avd
##avar
##amus
##awu
##epd
##hook
##lyrics
##ogm
##obm
##obc
##obox
##ovh
##otf
##ecw
##apm
##afet
##odern
##steam
##ivl
##ehb
##ehy
##blm
##ufact
##main
##iand
##ebx
##mlf
##exm
##rsm
##rsc
##thj
##thon
##think
##egb
##ersk
##evc
##prm
##wwc
##ekx
##ekey
##spark
##spaper
##shx
##snm
prz
##htd
##htk
##ybx
##ybg
##qhf
##ymag
##brk
##ioq
##ygf
##ygc
##ytu
##ytp
##ejy
##ejournal
##lsb
##yft
##ujf
##ujt
##vve
##glb
alic
alle
##uhf
##jsd
##quer
##ques
##frd
##dry
##krx
##uza
##fsv
grad
##cnp
##qjf
##qjh
##xpd
##11s
##wrf
##ozo
##mbf
##flower
##iyuan
##wxv
##mtk
##dtw
##wtg
##kvn
##kvc
##qtf
##qtm
##cpm
##mvm
##cfx
##ptn
##wjw
##kfw
##dfn
##dbp
##wfq
see
##dpq
##5555
##djg
##cxn
##hhx
criteo
##wgm
##asset
##ftp
##gdw
##kgk
##mode
ism
##heim
wholesale
edit
appr
need
##laser
##autos
radar
##resorts
gambling
motion
suns
realt
##generic
contin
##product
ideas
##utorials
rayban
status
luxur
##wallet
mozilla
washington
##sterdam
3y
5y
8b
8p
aof
akf
awf
agu
bns
bcb
bfn
barc
cqn
cqv
dac
dbp
djt
eol
eiv
eqp
fif
fht
fdv
fdx
gch
gys
gih
hef
hbn
hvp
hpn
hhx
iil
iup
iyg
iqr
iwx
ikz
jay
jfb
jfx
jbp
jzr
k1
kla
kew
kox
kyh
kont
ler
lvs
ljt
ljh
mew
mqr
mqx
mkz
maps
mebel
nld
nbb
ndj
nnp
nxj
nach
neo
o8
ocs
ooj
oyv
p7
pbl
psp
pzs
pill
ppn
qkb
qml
qct
qej
rrg
rost
rll
rfh
rxr
river
syw
sml
shs
sqp
tyl
tdw
tpn
uiz
uix
uyl
ums
uqj
uwt
uwj
uwz
uber
vfo
vul
vfl
vft
vlp
wic
wys
wcd
wql
wkv
wkf
xff
xbr
xdb
xbj
xbh
xbp
xhl
yir
ysp
ycn
yqf
ywv
zps
ztt
zbb
zfr
zlt
zjt
##solutions
##eart
##note
##iil
##iyp
##cen
##522
##push
##144
complet
##erec
##atg
##atom
##ondo
##avh
##avk
##avw
##avj
##avg
##agk
##ingj
##awf
##awaii
##rect
##recruit
##adis
##unde
##uness
##opur
##options
cour
##ogel
##ogether
##acdn
##oved
##otw
##ecuiwcymao
##iney
##iros
##esty
##ucd
##luo
##eqi
##ewiq
##ewrit
dez
##ufq
##ufm
##ajy
##rsq
##roi
##roit
##roads
##wyy
##udf
##trx
##evb
##evm
##efh
##dsy
##bulletin
##wwiq
##duy
##iwang
##ffy
##fft
suk
##ukuiwcymao
##ctn
##xxi
##coe
##phm
##ymk
##ymedia
##bry
##brief
##ejx
##bsk
##eche
##gsq
##hsl
##hsq
##vvq
##qsq
##grm
##uhd
##yhj
##yvy
##ktm
##drv
##whk
##qfh
##qjv
##xpn
##mbo
##wxn
ank
##mrk
##mrt
##mtx
##wpy
##dty
##kka
##kku
##kvk
##qtp
##cpj
##mvh
##cft
##sko
##gvf
##gpb
##gxg
##wlv
##kxm
##nrf
kras
pharmacy
##wgy
##anking
##169
##rrv
##gda
##achts
##icken
##wei
##weather
##74b
##verionirkutskagl
##issions
##anny
mediam
zhon
zhong
##ungen
agric
greens
guitar
egypt
##organic
##edition
##install
essential
101
citiz
##idget
##aptist
##houses
##chronicle
##atient
conserv
##revolution
oxford
##delivery
##lakes
scrip
levitra
setup
##urnitur
##rojects
extrem
dropbox
onlinecasin
3c
4c
5r
5m
6q
73
8l
8g
aet
ayp
aax
auk
bep
bux
bvt
cia
cps
cgf
cgr
cgz
dvs
dnx
eos
fts
fpl
fvp
fvh
fzr
g7
gyd
gqh
gqv
gdz
hib
hpr
hpl
hvs
hft
hfp
hfn
hjl
hxz
haut
iip
iof
ids
jnr
jfn
jhj
kih
kgr
kgl
kgz
lff
lbs
lnn
lfl
lvr
lvh
llr
mcr
mqq
mwn
mast
mwb
morning
nvs
ndx
near
nfb
nzr
nvl
ouf
oeb
oef
ocr
omz
ohm
pest
pjs
pbb
pbt
pzt
pxz
python
qaj
qoj
qcn
qwj
qgz
rnb
rjn
rjl
sgt
sgx
tet
tdc
tfh
tetr
uir
uah
ucr
uwf
vzj
vdz
w7
woz
xly
xhp
xpx
yem
yks
ysn
ygn
ywn
ywz
yoga
znp
zzr
##e0
##i15
##aes
##ayp
##wash
##zanarianaqh
##zodsholapet
##233
##278
##817
##312
##1000
##oml
##inam
##enov
##orep
##ornt
##icro
##edical
##rge
##rgq
##itam
##izes
cnc
##ilon
##osq
##empres
##avl
##awv
##adoc
##ikg
##ioneer
##ifd
##ovid
##otd
##afin
##afia
##afilm
##odj
##igma
##stq
##ewv
##ewiugkeq
##ewood
##ehv
##blf
##blw
##blood
##ebra
##ohw
##axm
##exf
##exq
##excel
##mgd
##ksiugkeq
##tsy
##trf
##egc
##egan
brasil
##evq
##prk
##proxy
##iqa
##yca
##ekg
cham
##spj
##snc
##ihb
##psw
##xxb
##clj
##phf
##ymw
##bri
##ygw
##wsl
##knd
##yfb
##vvy
##nne
arena
##grh
##gru
##yhw
spart
##ktu
##xsd
##xsw
##wnw
##krk
##ourist
##cnews
##dnc
##flj
##flare
##mjc
##mrd
##qvy
##qvt
##antech
##qlb
##kvl
##elles
##mvt
##cfk
##wjf
##kfe
##dbf
##wfw
##wbn
##gxb
##djn
##djt
##cxl
##ainc
##kxb
##kxq
##hhp
##aqd
##aqe
##yke
##outdoors
##dcg
onlinem
##fjv
##xlx
##cmd
##cmc
##qwk
##13s
##qdy
##woq
##aires
carbon
##offer
##peak
##ottle
lauren
##atura
intell
blueb
subs
ebay
cbdoil
##egram
fastly
yahoo
burberry
##udson
hello
##storage
##ounds
terra
budget
##advisors
##animal
##splus
##athlon
insuranc
wordpress
##england
liquid
##issertation
1a
4f
7w
7g
ael
aec
boh
bfs
bach
bbf
berk
cks
cancer
d7
duk
dxh
dbj
dhp
dbf
ees
eed
eem
ekj
eoj
eqj
ekv
fjv
ffg
gaw
gett
gyr
gqn
hzl
hzx
hbz
hook
i1
iej
imd
jag
jzz
jnb
jvr
jvh
josh
kcs
kwr
klin
lly
ljj
lzh
mqf
mwv
nly
ndl
nxr
oiv
olx
pjh
qqm
qcz
qsr
rnl
rzs
rbh
rvt
rvn
sgz
t7
tout
tpx
tamp
tlv
tosh
uow
uyg
uwv
ufa
vdh
vdf
vdj
vbh
wqf
wmv
wmx
wonder
xpt
xzz
xfh
y6
ywx
ymr
ygx
zld
zfv
zbv
##flash
##notes
##love
##locker
##oup
##o21
##uho
##matters
##zon
##cover
##parts
##0q
##300
##323
##1aj
##omk
##etimes
##enas
##army
##atx
##atj
##atings
##esia
rud
##charts
##iling
##emaster
##avc
##amz
##ambi
##ingc
##lei
##urban
##olve
##aware
##adin
##ogq
##kya
##ardi
##estor
##estone
##imor
##odf
##odp
##igeoya
##ypf
##ewk
##ehic
##oxk
##artr
##ylon
##ohio
##axq
##yxm
##ocm
##uwd
##uwa
##uwq
##mgk
##oful
##ierr
##thn
##thc
##trn
##trp
##ibd
##ossion
##eviews
##dsg
##iqc
chef
tri
triv
##spec
##shb
##shd
##shg
##ahg
##snb
govt
##plm
italia
##msx
##uxm
##htm
##ukm
##phg
##brp
##ygv
##ytk
##ytm
##lsk
##yfu
##nnx
##qsd
##yrd
##yrp
arct
##grw
##tto
shadow
alc
##yhm
##yvh
##qrx
##quet
##frn
##fru
##ktk
##drf
##mpf
##kry
##qpg
##cnb
##qfx
##xpg
##mby
##mbq
##flt
##wxf
##wxq
angl
##mtf
##cje
##dtb
##dtm
##kkm
##mhb
##gjh
##gjv
##gjw
##wtf
##mfm
##mfc
##kvo
##gtw
##gtc
##ptd
##ptc
##kfd
##dbd
##wfh
##xtk
##gpm
seal
##wlh
##kxd
##kxl
##336
##nrq
##ishu
##jrh
driver
bloc
##qmc
##xvj
##aship
##kmk
##mwa
##17d
##aua
##584
##jln
flower
##koe
##uoq
##oller
##uship
suprem
##eroom
##itty
##itten
##ollective
##interest
worldwide
bitco
##eprof
payday
##banking
elektr
chrom
##genius
##ownloader
googlevideo
assets
forums
##asports
synt
everyday
##iagra
pinoy
pornh
##makers
##printing
electronics
presence
##idential
##ricket
##olitics
graphic
innovation
rainbow
yandex
lisinopr
##lawyers
##learance
##christian
doubleclick
##adventure
louisvuitton
entertainment
7l
7q
bho
bnl
bdn
bdm
bvl
bpx
bible
ciw
cmm
ckr
cdx
cable
daw
daf
dum
dss
djs
dont
dfp
dxr
doq
eor
eon
eix
ers
eek
eqq
ewl
enr
fbl
fdl
ffr
fzj
fbp
fbn
fvn
fxn
gyp
gia
goss
ggg
gcj
gwp
gwl
hof
hij
hjt
iat
iaf
iwh
jdd
jfs
jdn
jdp
jxv
jxz
jazz
k8
kkz
llu
lpl
ldj
lzj
lbx
lvn
lzr
lpx
mks
mkx
msl
mother
nys
nol
nml
nah
nzs
ndp
nint
nfh
nhp
nvt
nbx
obr
oqr
ogt
pob
pcs
pvs
pbh
pfx
pfn
pvr
psr
pjl
q2
qas
qob
qup
qgx
r7
rit
rpl
rxx
rdb
rhp
skx
tum
tjr
tnh
tbn
ued
uit
uiv
uyb
ucl
ucz
ugz
vxt
vhp
w1
wog
wcr
wqv
wyq
x7
xhs
xfb
xvr
xjn
xxn
xzt
yyl
ygt
yyq
z2
zbs
zhs
zvv
zxj
zrt
##bis
##bug
##e9
##e11
##north
##iic
##iej
##hospital
##oid
##oof
##videos
##who
##uul
##zip
##cialis
##415
##677
##ombi
##omyc
compr
##inec
##aner
##anon
##anmar
##anywhere
##atalog
##onne
##izr
infor
##usq
##usm
##emom
##emap
##emovie
##util
##avm
##agy
##amal
##olat
##reu
##aday
##ulb
##univ
##opus
##opay
##epj
cox
##oward
##acm
##acloud
##ensch
##otik
##apar
##affe
##iras
##igb
##igest
##ivet
##ewebs
##uvc
dead
##ufd
##hrd
##ydk
##ydesign
##yxo
##mgf
##ksi
##tru
##egm
##eger
##ayer
##attorn
##okg
##evl
##evideo
##ssa
##iqm
##ycd
tracker
##snq
##nlj
##nlg
##pson
##htn
##ldw
##ynb
##coupons
##mna
##crx
##crk
##clips
##phw
##lsc
##klb
##nnd
##grf
##yvq
##gnd
##ghm
##bbm
##frl
##frh
##frk
##frt
##885
##white
##wno
##yjf
##qpv
##kpb
##ggo
##xpb
##xpy
##xpc
##11r
##ozy
##iyet
##mjy
##gee
##qvx
##dtg
##mhx
##kvb
##dvl
##cpk
##cfq
##cfp
##dhb
##wjk
##dbm
##cvf
##cvg
##gvx
unt
unil
##djq
##cxg
##hhn
##tline
##uqc
##ykw
##llx
##jrf
##368
##illin
##wgo
##cuu
##kdq
ener
entr
##kmy
##150
##xrx
##orne
##loop
##bnx
##mount
##vplefrostbitecycz
##iuo
##iuu
##vthoodivettewl
##airlines
##108
##scape
##encer
osaka
##labor
##ecounter
fbcdn
bigs
chris
##epharmacy
replic
##octors
##careers
##embassy
scient
lovel
merlin
harv
##istries
istanbul
##commerc
##builders
canadianpharmac
##oliday
##korea
globals
wireless
sugar
##eglobal
hydro
property
fyei6
3w
4b
4k
7m
8k
81
aor
adh
auss
bfh
bbx
burs
cek
clas
dpr
dgf
dzs
dvn
dpj
dipl
eaw
eaf
ews
fxl
fdz
fbf
fusion
gcl
gmf
gkx
geeks
hic
hep
hly
hjr
hvn
hzr
hvl
hock
here
hemp
heps
iyw
jhs
jdv
jdf
jnp
luk
mama
nre
nuv
nib
ndb
njr
nft
njb
npn
number
oom
oem
oep
oow
oir
oof
ocd
ouz
pog
pft
pxr
qit
qab
qir
qof
qmx
rvj
recyc
seq
sts
sgf
scg
txh
tfb
tbp
tjl
tjz
u6
uaf
uij
uyn
vfr
vtl
vjt
valt
wam
xbv
xnp
xfn
xzp
xzr
xlx
yqq
zrg
zdd
zzx
##ayl
##har
##kis
##tool
##uet
##uqv
##722
##717
##2ch
##216
##public
##0y
##811
##868
##anos
##anow
##alley
##onos
networks
##isis
##cham
##usy
##ysa
##empo
##folk
##ingers
##oluc
##entes
##uless
##ikq
##ikm
##ikuiwcymao
##ogle
##kyeoya
##acd
##ovq
##rices
##apb
##imax
##odm
##odcast
##ypb
##ypi
##ewm
##oxj
##oxc
##ebq
##axw
##dlb
##exi
##udad
##udios
##every
##sshoes
##dsd
##dsq
##ycq
##spd
##spi
##spv
##ppo
proh
##cca
##msd
##pse
##psy
##htb
usb
##ybq
##ybook
##ldf
##ldj
##ldc
##ukq
##cty
##ctw
##coupon
##mne
##crh
##crp
##browser
##ygk
##ygames
##cso
##cdv
##angs
##uje
##ujm
##ojk
##mmk
##grd
##cyk
##ttb
##ttq
##glw
shah
ali
allp
##gnx
##khe
##kty
##mpc
##qnd
##yjl
##allo
##dnx
##mbg
##flx
##flg
##mrm
##mty
##mha
##gjm
##wty
##wtm
##cpn
##wjd
##dbw
##gbp
##gvj
##iesel
##gpv
##gxw
##gxm
##126
##dpb
##dpj
##wlk
##djp
##mxn
##fvj
##nvn
##ykg
##446
##bvp
##dcu
##dcm
##njx
##illes
goods
##cgd
##fbc
##zjx
asi
##786
##fxr
topt
##238
##atholic
##elson
smash
expl
##ondemand
##diary
theater
medias
##strap
##erclub
##alty
paydayloans
##recovery
##empor
thebr
##opress
sanj
##optics
mirr
##paris
dc2
perform
honey
##obrasil
##student
##officials
##model
hawai
latin
immobil
juic
##therapy
fantas
freedynamic
freedynamicdns
2q
4u
8d
8w
aed
ayx
aww
buc
bvn
caw
cik
cws
cong
dxl
dbx
djn
eoh
eqb
ekl
egx
ecu
echo
fanc
faz
fear
gej
ggs
hire
hbf
hhn
hond
hospital
iem
ikv
igd
iqz
icz
j5
j2
jjr
jjp
jbx
kif
kmn
lxp
lxh
lrr
lfp
ljp
lzt
mma
mgl
mkr
nice
njn
nhx
oib
ocl
oej
oyh
ocg
okd
piv
pays
q1
qst
rly
rfl
rdj
rzn
sia
swz
tjb
tower
uid
uwx
uuy
uwb
vector
wyx
wcc
wwd
warn
xvv
xzs
yis
ych
yqz
zbl
zff
ztl
zzl
##nut
##iub
##iyf
##yak
##lit
##hai
##kong
##villa
##math
##zal
##211
##212
##pub
##instr
##independent
##anac
##ansport
##eness
##ische
##laa
##rgo
##rgm
##osem
##abus
##abook
##avf
##amusic
##awc
##adda
##ulike
##option
##houston
##essen
cogn
##idades
##forall
##obao
##acq
##ovis
##afk
##ucan
##igw
##igz
##ivas
##ypa
##ypq
##eque
##oxq
##mae
##hroom
##ylm
##ylz
##axo
##ajl
##dlw
##uwiq
##etters
##kso
##ksu
##wyg
##tsburg
##iaiugkeq
thesh
##efree
##spk
##iwiq
##ahm
##snp
##ijd
##qbx
##psf
##ostream
##ymph
##ygen
##cdy
##klc
ard
arv
##glq
sharp
##ddf
##gny
##eae
##khf
##khu
##fry
##frv
##qnc
##cnu
##xpf
##ueo
##uela
##wrw
##ozz
##cee
##dnf
##dny
##geeks
##mhc
##gjf
##wtc
##mfestival
##248
##qtq
##mvr
##dhk
##dhw
##xhk
##ptl
##ptp
##wji
##dbn
##xto
##xtg
##xtp
##dpd
##djd
##cxd
##cxq
##cxm
##dxd
##dxc
##hhl
##3333
##fvw
##nvr
##449
##nto
##yqd
##bvx
##iiu
drive
##cgc
##qmk
##yyi
##kwk
##fhx
##neu
##ageoya
##wdg
flix
##357
##2012
##kola
##converter
##543
marine
##orders
##ithub
##markt
telef
##909
militar
coron
essaywrit
actual
ocsp
##enterprises
valu
professional
remont
toront
denver
beautiful
kunst
survey
article
##progress
hollister
californi
supply
##knowledge
4q
500
6m
aul
bih
bvv
bvp
bird
cio
cqs
dfo
dbl
dell
dfx
dxz
demo
enp
egy
fud
fvt
fjl
fjb
fpx
fvf
fifa
geg
gyb
ggx
ggd
h6
het
hjs
ial
iiz
iol
iec
iim
jbn
jvp
jjx
jbf
jxn
jzt
jzl
kug
kqh
kobe
lob
loy
lxj
lpn
lights
langu
mww
mgh
mwf
mgx
morr
mental
mypr
nil
nip
nnx
oed
oik
oih
oqq
ocf
pdh
pcg
pbn
pzr
pnx
ppj
putl
qop
qyd
qcc
qgr
rho
rjh
rlx
rhv
syh
tjp
tbx
tzv
tree
take
ual
uel
uod
vxx
vjh
vzl
vzv
wms
wyt
wqq
winter
xvx
ycl
yyg
ykj
ywh
yiy
zab
zns
zph
##eum
##next
##iux
##afor
##hat
##wedding
##jordans
##724
##716
##zero
##488
##616
##511
##277
##pers
##326
##1tv
##omiq
##omusic
##alen
##alife
##arib
##esoft
##eshoes
##itle
##izt
##chf
##ilar
##osiugkeq
##osport
##elight
##ysiugkeq
##fou
##agan
##agames
##urx
##olw
##olds
##adesign
##ulin
##ulous
##unity
##ikf
##ikin
##essaywrit
coup
count
##ovc
##ecq
##rates
##apj
##afw
##iris
##ewear
##hrf
##ebar
##yld
##ylq
##ohc
##axa
##kbw
##ajf
##ocdn
##dlo
##mlj
##uward
##exu
##exj
##tsq
##iaq
##thailand
##trq
##trm
thy
##akc
##nsm
##ubes
##efitness
##dsf
##ekq
##eker
##oyk
truth
##speak
##shar
stu
starb
prol
##planner
##eyi
##uxc
##xxm
##qhu
##brc
##yga
##ytf
##qqa
##qqeoya
##cdo
##ojl
##grk
##ttj
##glc
##uhy
##uhc
##yvf
##yvl
##qru
##gnw
##ghw
##eaiq
##drx
##drj
##krl
##qny
##cny
##cnq
##kpf
##qfy
##qjo
##wrl
##ozi
##mbw
##qvq
##wpb
##dtq
##mfd
##mfp
##kvd
##kvu
##kvm
##dvg
##cpb
##mvc
##cfd
##dhv
##gtk
##ptj
##ptg
##wjh
##kfy
##dfb
##dfc
##dbx
clark
clicks
##wfc
##xtd
##cvp
##gpq
##dpn
##dpv
##dpm
##dpc
##dxw
##bjq
##ykq
##dmw
##llw
##225
##xjx
##kdw
##fpx
##qwd
##qwm
asm
##kmd
##bpx
##vrq
##17s
##hpj
words
freer
scan
ford
opend
##etrust
author
##score
carib
##working
swarov
##atrim
simon
schw
scholar
##arrow
northe
##eautiful
found
portald
studi
loop
##898
chinat
peter
yours
##clear
write
##parks
##computer
##lugin
writers
##building
positiv
##tracking
gulf
generator
todays
spotify
pictur
##future
##athletics
##adgets
canadagoosejackets
##advertising
follow
jewelry
3k
6y
61
a6
aej
akk
bvj
bvx
bhv
base
cug
cmc
cinema
dys
dop
dup
dsl
eof
ets
eyg
fth
fxh
fnr
fvx
fpv
gkl
guy
hfz
hung
iwd
jzh
jjn
jvl
jnz
kac
kuc
kant
ksk
kultur
lfs
lemon
mine
mqs
mwx
mql
myq
ned
nfo
nde
nim
nud
nvh
ore
oid
oax
oql
okw
pcb
pfp
pzp
pvl
pvx
poll
qyw
qkh
rif
rhl
rzl
ssc
tlr
uil
uwr
ugp
vim
vjs
vvp
vbx
vrv
wml
wool
wifi
xfv
xft
xlr
yik
yig
ycc
yez
ymb
ywf
zpl
zux
zls
zfs
zhh
znb
zjv
zfx
zzn
##rist
##roc
##nutrition
##iuv
##thr
##vide
##788
##466
##655
##215
##prep
##0k
##815
##378
##1st
##omq
##inan
##inat
##enig
##alz
##alas
##alem
##oring
##oreal
##arus
##laim
##lage
##itab
##asq
##chec
##olz
##olen
##oless
##ollo
##olike
##awithout
##istar
##entic
##ulos
##unci
##oplay
##idos
##obk
##obar
##oble
##arda
##acuiwcymao
##odem
##igos
##stalk
##ived
##ivals
##yproject
##oxd
##ylb
##kbox
##ywm
##uwk
##extra
##wym
##iaiq
##thm
##egeoya
##andd
##ayy
##ayeoya
##ubn
brian
browser
##evis
##ssq
##prav
##prize
ccc
##ekc
##ekuiwcymao
chun
chill
child
trends
##spf
##spw
##shy
##shc
##shang
##shore
##sheng
##qbd
##nlb
probo
##plq
##eyou
##htc
##ybm
##ldm
##couns
##bright
##csa
##csm
##ujw
##gsu
##hsa
##vvc
##ddy
spa
##gnb
##gher
##qnu
##fsk
esl
##kpc
##wvd
##ozn
##dnh
##mjd
##mra
##qvc
##wpa
##mhf
##mhl
##mhv
##wtq
##wtp
##inda
##dvt
##mvd
##dfg
##cvk
##gvu
##gxk
uniqu
##wlq
##djf
##djl
##dxk
##boats
##tlt
##nvu
##nrj
##44a
##llt
##2222
##186
##181
##xjf
##xjd
##kdi
##gdk
##fnm
##kman
##vrv
##jthoodivettewl
##jplefrostbitecycz
##dgc
freec
smok
##gmu
march
##aglobal
emerg
mediac
csg
##lando
osv
##ublics
servers
##meds
##ourney
##architects
##amilton
integr
##meta
##metrics
##reatment
##ecount
##ecommerce
motorc
reporter
sexy
logic
##defender
##andbag
watches
##castle
##balance
##transl
million
cooking
athlet
infinity
##broker
pandorach
ralphlaur
daniel
deutschland
##process
covid19
gvt2
material
cleveland
muenchen
ain
ays
ags
aql
adj
auction
bdx
doh
dft
eic
ead
eyh
ecx
easter
f3
fjx
farmac
guk
gcs
htr
hcb
hend
hxl
hvh
hhv
ioc
irs
iym
jup
kml
kqz
kurs
lug
lxl
lfx
lhj
lnz
mmg
mkl
mwl
mack
mwz
mods
nxh
nzj
oor
ous
oyd
ook
oyb
omh
onp
onb
okm
pax
pcc
pant
pjr
pont
pxn
pears
qec
qyl
qgh
qkr
qoz
qwb
rig
rxp
rjt
rvl
syv
sou
smx
tzp
target
uus
uif
uuf
uwp
vxs
vzz
vfn
vlr
wmg
wire
wok
wmm
wolf
xrg
xrs
xdh
xrv
yag
yuw
ycd
ykl
ywj
zrs
zht
zdn
zft
zxv
zfb
zfp
zbp
##beach
##e21
##iyt
##416
##236
##pic
##0j
##318
##omw
##etab
##etube
##onik
##ongn
##esar
##ladd
##launch
##asx
##asen
ingen
##cholar
##iland
##osed
##eles
##emaker
##agd
##ageb
##agef
##amq
##uring
##isters
##reations
##reading
##adat
##ulum
##unz
##opic
##opark
##hodsholapet
courier
##obz
##obook
##acons
##ifier
##aport
##irds
##import
##odia
##ivep
##ewater
##azd
##azv
##yxu
##kbk
##ajg
##dler
##nsg
##nsc
##fany
##evd
##proshop
##efer
##oyeoya
truc
##ahv
##ahome
fram
##snx
##sny
##nlr
still
##eyond
##psl
##hte
##osta
##ynu
##xxk
##clicks
##ygd
##bsm
##bsg
##kja
##angers
##yfq
##uja
arth
##cyv
shim
alk
##ddv
spread
##gnu
##ghb
##whf
##ezo
grid
##cnw
##kpd
##11f
##11a
##11h
##wxw
##mju
##mrl
##cjg
##qxd
##wpg
##kkq
##gju
##gjc
##wtn
##mfy
##kvy
##mvy
##gtb
##gte
##wjl
##wjq
##wjv
##kfk
##wfb
##wfx
##cvx
##cvq
##gvm
##gpg
##12n
unity
##djh
##djv
##aints
##33b
##nvh
##nvp
##nthoodivettewl
##yqk
crit
##nhp
##nplefrostbitecycz
drj
##njv
ambi
##cgk
##cgw
##rrx
##cmk
##ltp
##btj
##kgq
##qdq
##qkq
##athers
##wdq
skin
elite
mari
onep
##agles
ntz
##erno
editions
rtb
##elper
serveh
##inners
##ospace
akadem
##4x4
##advantage
##ecoin
teatr
##burger
photos
##umble
##urgery
consum
honest
##analysis
##g3jx
welcom
martin
##cosmetics
alpha
samsun
##obotics
diamond
##istribution
##companies
##edoorrepair
121
520
bdw
bpn
butter
csk
cwz
dbh
dvp
divers
eal
eyl
eoc
enh
ftt
fzs
fjp
fhn
flam
fuck
fishing
gik
gml
gqt
garm
hfo
hdc
hzp
hlh
hhj
ied
ioh
jal
jar
keq
kgg
kgj
komp
lid
lnr
lbz
lebr
mkh
mmd
mats
mfa
neb
nbz
oif
ooc
pec
pff
pcm
powers
qel
qcr
qmp
qcp
qcw
rox
rxn
rzx
rzv
sox
sie
tzh
tzr
tnx
tours
tiny
u5
uen
uof
v1
vly
vdr
vll
vfh
vjp
vxn
verb
veter
wew
wkn
wmz
xfp
xvh
xlh
xhj
yql
ymc
zhr
zxh
zpt
zdp
zuq
zbx
zlp
zvh
##fishing
##e31
##oot
##o31
##town
##jar
##mis
##match
##glass
##cert
##624
##258
##9i
##9u
compan
##inka
##anis
##etel
##alx
##arge
##atik
##onen
##oness
##lain
##lamb
##izard
##asam
##asth
##ilog
##emens
##avq
##olik
##iking
##hobby
##ogz
##acw
##acorp
##ifes
##otools
##ecorp
##apq
##ivz
##ypost
##eqeoya
##axu
##kba
##ajk
##ocar
##uwy
uks
##rse
##bies
##etts
##tsu
##thk
##trb
##akd
##andal
##ibq
##iban
##ugc
##centers
##ubd
brill
##aroo
##prl
##spu
##shf
##nlk
stell
##pld
##pln
##eyeoya
##psq
##htf
##hta
##ldv
##mnd
##clv
##phk
##qqu
##kjih
##cdi
##lsd
##yfk
##ujin
##echat
##ojc
##gfd
##hso
##qsy
##qso
arl
##grand
##gli
shift
alld
##ieiq
##yhu
##frf
##ktb
##draw
##xsy
##krd
grant
##kpy
##alleries
##wxo
##mtu
##cja
##qxv
##qxm
##gjq
##mfk
##qlo
##zsx
##mvu
##cfy
##kfc
##dfp
##gbc
##cvy
##gvg
##gpe
##gpj
##gpc
seas
##wbx
##djk
##mxf
##mxv
##mxc
##cxj
##009
##bjc
##337
##aqc
##fvg
##ntp
##yqm
##llm
##llp
pharma
drk
##njg
##qmy
##rrj
##goq
##bhn
##cwiugkeq
##143
##135
##neakers
iso
##vpx
##585
##vnm
##buch
##actors
##koq
##ockers
##aeu
boat
bounc
##diam
##webdesign
##strike
saud
##ifty
heid
result
insid
nova
safet
voice
##erling
2020
yeezy
director
nature
empire
affiliat
1800
vegas
##break
##article
birkenst
138
4y
5e
567
aom
aum
bzr
bbz
dde
dart
dxn
dvl
dhj
eec
euw
eey
egh
emc
fos
fad
ftr
fxx
fdp
fhx
fxz
gle
guw
gzh
hre
hdl
hmn
hjh
hjz
iet
ima
iwn
ick
jvs
jfh
jlp
kws
kkl
kkk
kell
kcx
kwz
lod
lbh
llo
leap
nun
naf
nvj
nipp
nepal
oad
ows
osk
peg
pfs
pzh
qys
qiq
qgf
qiy
rfo
rdm
rbf
rvh
szh
smc
sept
txr
tlp
tiend
uex
ugx
vvf
vrh
wum
wkt
xjs
xfs
xbx
xvl
xbz
yek
zll
zxn
zlr
##farms
##bird
##sen
##nav
##iid
##iuk
##aac
##aire
##hall
##kill
##wic
##wim
##zam
##zerionirkutskagl
##424
##433
##256
##877
##8a6
##1bv
##1jv
##1a7
##omal
##inia
##etor
##enes
##enue
##orel
##orov
##atin
##atis
##icam
##lawf
##ladsholapet
##itap
##itary
##izj
instr
##ilike
##entials
##opar
##ogame
##idq
##obd
##obit
##owq
##rations
##apf
##apore
##luence
##azn
##azk
##blatt
##ylink
##yder
##axd
##ajq
##ywq
##umiq
##ksq
thea
thegr
##aked
brown
##efilm
cct
##ekom
##duz
##oyment
traff
##spc
##iwk
##ahx
##ijz
##qby
##nlh
##ihan
staf
##plans
##mso
##msu
##ctf
##ctk
##xxf
##coq
##qhb
##qhe
##clq
##ytq
##ytc
##lsw
##kne
##hsg
##vvo
##grad
##ttu
alert
##yhe
##yvb
##yvp
##eao
##khabar
##kte
##883
##drw
##wna
##qne
##vsz
gru
##kpo
##113
##flr
##wxb
##cjl
##wpf
##mhd
##wtk
##wtj
##mvb
##dhu
##wjy
##dfk
##xtu
##cvc
##gvy
##gvt
##wbp
##12b
##12s
##12l
##12j
##66s
##dxf
##hhq
##fvt
##nvg
krist
##zha
##llg
##npj
amar
ampl
##xjp
##nbt
##qwe
##kwd
##cwq
##dwk
##148
##xrv
##mwd
atelier
ori
##jnf
##woe
##686
##51b
opent
##32s
##young
zhu
##espace
viag
field
##eroad
##ittle
geor
webl
##arning
slim
##monster
catalog
teens
kyoto
##ourcing
##eplanet
cybers
ijdd
##models
level
##websites
summer
lady
longchamp
european
inspir
delta
##angeles
##circle
frontier
plastic
##gifts
epson
oregon
laptop
u0g3jx
proboards
u0g3jxaa
135
6f
7c
aop
aeq
aoy
aver
azsc
bfx
born
bzp
body
cuw
cuk
cuz
dfn
djx
eqs
eck
fcc
fzt
fzp
ffz
gak
gqf
hin
hle
hjn
hvj
hpv
iog
ieg
iwp
jfo
jle
jtr
jvx
jnx
jackets
kia
kww
kyc
kqr
kwh
kwp
kinder
kreis
lrg
ldl
lfj
ldz
lxn
lrt
mmu
mrp
nal
nir
nay
nxs
nfn
nbp
nvx
npv
oer
oaf
oex
oqb
oyt
omm
ogw
pem
pens
pss
png
qik
qug
quk
qwl
qqd
qui
rre
rst
rij
rht
rbc
rpv
rnx
rlj
rxz
sme
szj
tib
tyn
tej
tjn
tiger
torrents
uat
uic
uqr
vag
vho
vpl
vbr
vdw
vzp
wus
wald
xbs
xnt
xdz
xpn
xfz
xbox
ymg
ykp
yyy
ycz
zly
zts
zpp
znr
zfn
zvl
##dream
##ros
##ying
##oons
##wealth
##ground
##7hl
##zine
##zilla
##coffee
##477
##455
##516
##218
##2jv
##818
##1nr
##omos
##omain
##oran
##areg
##icons
##onix
##ongw
##onica
##iscount
##lao
##laire
##rgk
##ilan
##osan
##elive
##ysoft
##amel
##awz
##istro
##enty
##ention
##entinel
##ulder
##lyo
##lyz
##oguiwcymao
##idenc
##acific
##ecentral
##stvo
##ivd
##luw
##eqk
##ewu
##ehms
##artist
##hrss
##ohf
##axc
##ajm
##dlz
##exk
##ksz
##tronic
##egd
##akg
##attery
bride
##pry
##efil
ccr
##zads
chinal
truck
##shl
##shirt
##ahf
stiftung
##plb
mej
mein
##msf
##ffd
##psa
##psk
##yba
##mni
##crl
##clix
##ymi
##csi
##qqc
##kju
##cbed
##ttf
##gln
##iea
##qrz
##wnx
##ezg
gran
##qjy
##wvc
##dng
##flb
##flight
##iyan
##cjw
##cju
##cjc
##antis
##arka
##dvq
##qto
##qtk
##qtc
##dhd
##dhn
##xhl
##gbd
##xtb
##xtm
##cvh
##gvl
seatt
##ckm
##wbd
##gxn
##55b
##wlp
##mxg
##anse
##kxr
##hhk
##hhm
##uqi
##nrb
##guit
##guys
##ntx
##jru
onlined
##wgq
##asso
##onton
##nbh
##161
##xvp
##kdy
##integ
##gdy
##lthoodivettewl
##fhn
##jvf
##vrb
##176
ident
##21s
##21l
##lplefrostbitecycz
##286
ski
##747
##fgm
##fei
marri
##diet
intern
##rior
##1vz
##espa
##ething
##rplefrostbitecycz
##1f8
##rthoodivettewl
guang
xham
outlets
resum
intellig
lives
insider
taiwan
chinas
chinac
##ferences
prev
##otravel
oliv
##mobi
##yclopedia
technical
onlinec
##lugins
##prescription
##essionals
blackh
metropol
sandieg
##atlanta
fabric
argent
commercial
##discount
##protection
##wizard
2y
5c
7y
ayw
aiq
adw
brg
bss
betting
bzs
bdc
bfg
bbw
bhj
cyw
cgg
dah
dnl
dfz
dlx
ean
eot
eiq
ecg
ecm
egz
erp
feb
feng
gek
gey
gee
hud
ifs
iqm
jol
jho
jdw
jhl
jzn
kcl
kash
kelly
lth
lzl
lpj
lxz
llv
mgf
mai
moo
mqz
mgm
moms
n7
nus
nig
nfx
ogf
oyr
pzl
ppv
qom
qem
qol
qog
qod
qyy
qwz
rzr
smg
sind
sjz
sonic
tch
tss
tzs
tzj
tdz
uik
uog
uuc
uuw
vfs
vdx
vfp
vbn
vhx
vvx
vlh
woc
wgs
wkk
xjb
yic
yus
yyw
yss
ymm
znl
znn
zdx
znt
zbt
zdz
zjx
zzt
zjl
##ress
##rail
##roll
##su
##iur
##iyc
##a17
##a27
##yab
##tours
##mash
##mission
##512
##538
##255
##pace
##848
##intr
##ered
##erun
##etest
##enor
##enic
##enver
##alet
##onas
##lafox
##ityw
##izf
##izk
##chil
##osch
##elan
##elog
##ablo
##emot
##utos
##avia
##avels
##avern
##agic
##awiq
##oped
##epic
##hoess
cola
##obh
##obw
##owm
##qou
##afric
##ireless
##imiq
##odon
##stan
##storm
##ivirus
##yper
##azp
##oxb
##uven
##ianews
##yline
##ydu
##rout
##tsz
##thews
##akadem
##nsy
##ayar
##ibune
brows
##prob
##iqeoya
##wwm
##yzh
trinity
##spg
##ahar
franch
##snd
##sne
station
##htu
##ybest
##crib
##phd
##phones
##ymusic
##yge
##kjd
##wsm
##yfd
##ujd
##ujc
##gsy
##hsy
##gra
##grade
##cyo
##ttm
##globe
shell
##yva
##gnc
##gha
##drd
##driver
##wnk
##ezn
##ezt
##uzy
##uzo
##qfq
##11t
##ozu
##dnp
##fln
##wxj
##wxc
animes
##qvb
##24n
##dvh
##qtb
##qty
##qtu
##astar
##mvo
##gto
##wjc
##kfx
##dbh
##dbo
##xtn
##gpn
##cke
##wbw
##worlds
unc
##cxc
##002
##kxf
##kxg
##bjf
##bjh
##hhe
##hhv
##erte
##uqe
##aqi
##fvb
##outdoor
czech
go2
amoxic
##xjv
##nbg
##cgy
##16h
##xlm
##fbf
##rrb
##rrw
##into
##kmo
##aau
##146
##mwk
##mwm
##hpn
##aueg
##jhb
##hotograph
##bfc
##ealthcare
##37b
scar
##eshi
##bmq
##ampaign
adid
csb
agil
superb
##ooking
mais
##ublica
airbnb
gamers
##monkey
##eachers
##hwest
omeg
portland
galax
##alifor
lifes
kaminy
document
laser
dynamic
##ancouver
wholesalejerseys
fonts
blogging
persian
august
##florida
blockchain
##olombia
##authority
##eligion
##assignmenthelp
foreign
5a
aew
aqq
akj
akl
akd
bch
bfo
bee
bond
bien
basketball
cma
cmx
cors
cycl
dit
dfr
dbn
djl
eer
egs
ett
estr
etern
flav
fash
fpn
fzv
fhv
gus
gmg
hlx
iig
iew
igg
ikk
icg
jah
jxp
jdc
jlj
jhv
kai
ljs
ljn
lhx
lvx
lamp
mgg
maq
mock
mrt
nzt
npx
nzn
oas
owy
ots
p3
pch
punt
pfz
qor
qar
quw
qkl
qmm
quz
qmf
rfx
rfn
rzt
rzp
rjz
sey
sgw
sacr
tep
tea
tdf
tzt
tzx
uar
uyc
ugs
unn
uuq
ves
vans
verg
vjl
wyw
wuk
xbt
y7
ygl
yuan
zdt
zxl
zxr
zvr
zhp
zvp
zhn
zvx
zpv
zlx
##fen
##bill
##ning
##iul
##iix
##iif
##iyn
##letter
##hit
##hatt
##ouk
##werk
##uin
##gardens
##715
##cell
##ctions
##0z
##eron
##etow
##oralph
##atim
##ontr
##esch
##iths
##itles
##izg
inet
##ysq
##emor
##emiq
##utors
##agq
##agc
##amers
##amak
##ingu
##leads
##uras
##dead
##reation
##opanma
##hoenix
cow
##idia
##enste
##otz
##oten
##apas
##irport
##estation
##oded
##ypm
##yporn
##azione
##bloom
##iani
##ebm
##ohost
##axk
##axg
##yxwv
##ywc
##ywrit
##ettl
##kse
##uddy
##egq
##ayz
##okz
##ssy
##ssale
##prz
##ederick
##ycm
##ekitchen
##nld
##nlm
##ihua
proxy
##ctb
##ynq
##courier
##mnop
##crd
##iola
##kno
##gse
##hse
##hsm
##vvd
##qsz
##yrm
##tty
shad
##yvm
##kha
##drm
##xsg
##xsz
##wnb
##wnd
##yju
##cnd
esf
##oooo
##xpm
##dnd
##dnv
##dnm
any
##wpe
##wpo
##mfq
##kvq
twin
twist
##mvk
##dhc
##pta
##uyun
##dfm
##gbq
##wfd
##wbk
##wbc
##wlc
##664
##djm
##330
##tlx
##uqa
##fvy
##fvh
##nvt
##nrw
##ykd
##dmz
phi
phim
##nhx
##367
##16b
##xlf
##xlp
##78b
##dwc
##fnq
##348
beeg
##vrj
##hpg
##kgm
##cache
##99b
##21h
##284
##bcq
ptc
##fgc
##keep
techno
ntx
emil
zhen
##riors
##unglass
##inois
bjg
azur
##othes
guest
avon
shops
##ollect
poloralph
##ussy
meteo
soci
##editions
##onnection
##agoose
winds
##mining
##linea
##theater
active
record
compass
##defense
musik
wait
##level
palm
northern
imperial
##urveys
##cheapjerseys
customer
##industrial
thenorth
##ultural
##anguard
japanes
castle
ultim
##collect
scout
machine
arrow
##ictionary
queens
insurance
##munication
vintag
##opinion
virtu
guardian
##premium
mitsub
christianlouboutin
##iburada
abercr
06
3e
366
bum
bpl
bcf
buck
bamb
cass
ding
dho
dzr
dzx
dhv
giq
gww
gms
give
gqz
hjx
hxn
ian
iar
iic
ium
jaw
jdm
jjz
kho
keg
lop
ldx
ljx
lfz
mgs
mkf
mmw
ois
oec
oiq
pjx
qew
qms
rzj
rlh
rivers
spp
sgd
schools
tos
tzl
tehr
uin
ues
ufo
ucm
uuu
vhr
vjx
vvj
vhn
vpv
vbz
vhv
vlad
wos
wun
wgp
xfo
xfx
xzl
yys
yts
yqs
z7
zyb
zxx
zdb
##black
##rob
##rorcajanunal
##rtallulahavaw
##iwy
##lots
##hal
##ois
##oho
##wars
##joy
##414
##474
##61t
##515
##2a4
##pedia
##317
##356
##1cz
##1a4
##omad
##inac
##erns
##etim
##ority
##arant
##aths
##atory
##atica
##icity
##lagu
##edcb
rubb
infr
##chest
##ilz
##ilfe
##osur
##osev
##elov
##elps
##abay
##agri
##amet
##ollywood
##undhe
##oparts
##ionet
##ided
##forh
##oban
##ifan
##ifilm
##otto
##esti
##stick
##ivar
##ivity
##maine
##hrz
##iann
##ebot
##ocz
##udz
##udit
##akx
##andw
##andals
##ugm
##ugby
##okes
brow
##anbr
##sse
##sso
##ycy
##shk
##shm
##shin
fruit
##ijuan
##ccu
##uxa
##ybu
##yber
##ldg
##ctz
##qha
##clin
##brw
##ioa
##angk
##yfz
##klink
##mmz
##yru
##cbu
alv
##yhome
##yvx
##frm
##qpe
##fsg
##qju
##ggq
##wvl
##wvo
##xpw
##11j
##11p
##uei
##wra
##wru
##oze
##fljerseys
##qxo
##wpc
##mhy
##mhm
##gjd
acqu
##dvx
##dvc
##dhq
##wjm
##dfd
##dfilm
##gba
##cvw
##774
##556
##553
uno
##wlf
##wlb
##665
##djw
##cxb
##cxk
##bjp
##335
##nrx
##dmu
##yqe
##llo
##njp
uae
##fjf
##18a
##ontact
##ftn
##ftc
##qmu
##167
##165
##fpg
##ltb
##ltx
##kwm
##bhj
##jvj
##145
##czt
##bnm
##jtn
##23h
##achar
##28p
sketch
##erger
worl
impress
##points
##31h
##feu
marathon
##1sx
##riends
##espot
##osha
allied
allianz
guit
rpg
##fuel
##alker
##cargo
##medi
##performance
outlook
##escue
##eproduc
##omena
lygs
##merk
healthy
##cheon
domains
coronavirus
multi
delivery
volksw
##elief
herald
##investments
##studies
##onlinestore
memor
coding
player
##iphone
dolph
##retail
industrial
programm
##innovations
destination
##gateway
##styles
current
jackson
##coalition
renault
8c
aen
auw
aqt
abv
bde
blaz
bdu
bass
bzl
beng
bhn
bpj
bnz
b2b
cys
cew
cts
cmd
cinc
cord
cpa
dut
dov
droid
dutch
eom
eys
eac
ebs
edt
edp
fier
foss
fpr
fuel
geq
gpl
gsc
hjp
hng
iik
iyc
iiw
ico
iqd
jed
jde
jjb
jbg
jjf
kcw
keys
lens
ljz
muw
mqv
marm
mann
nel
nub
nort
ndm
nxl
nfz
oiz
ohi
pct
pbf
pilot
qad
qyg
qcs
sanc
swy
sns
skm
smd
sinc
solution
tyc
tao
tjx
txn
txz
trev
uor
uis
uur
uaw
ueg
uyy
vut
vend
vzr
vlj
wsk
xun
xlu
xzx
yac
yec
yey
ykk
yaq
zet
zdh
ztp
##beh
##burn
##ram
##east
##iyj
##a37
##lang
##oug
##gem
##c0
##cott
##culture
##422
##478
##656
##5zj
##2tv
##855
##844
##856
##1c4
##enot
##alec
##alter
##oram
##atq
##atimes
##icar
##icdn
##onaut
##rga
##itime
##asch
##asuiwcymao
##ascher
##asaki
inp
##utech
##amax
##inga
##leon
##dei
##istration
##adog
##unews
##opost
##opath
##epy
##eption
##owiq
##acter
##ifz
##ovan
##overn
##otur
##othe
##apark
##irth
##irement
##estop
##estreet
##ucuiwcymao
##oding
##odle
##odels
##luy
##ypu
##ypark
##ewz
##artment
##yli
##axz
##ajd
##ajw
##ocloud
##mgo
##mgu
##role
##trw
##ibus
##sson
##efair
##wwe
##ycare
##yze
##eken
trk
##snw
itunes
##psm
usc
##ybd
##ctu
##ctg
##cles
##ymer
##ioe
##cse
arp
##grill
##glf
shan
spam
##jsm
##frw
##fram
##ezp
##qnz
##oou
##qje
##qjc
##ggm
tvt
##flc
##mjm
##qxq
##dtf
##dtu
##indows
##244
##cpe
##gtj
##ptq
##skin
##kfu
##xtq
##gvd
##gvk
##776
##gxc
##12f
##12d
unim
##6655
##kxc
##dxq
##dxj
##tln
##nvf
##nrl
##ntd
##ntj
##jrp
##361
##zzx
##187
##aoa
##16p
##xvx
##xlk
##xlg
##fpv
##qwc
##kwe
##kwc
asf
##fhp
##cwc
##fny
##fng
##bpv
beer
##hpw
##137
##hlm
##need
##mdq
##bnd
##qgm
##iua
##eoq
##wdy
##uuo
##265
##cond
##ingsolutions
##375
##51f
##annels
##aei
##screen
##yoq
##riend
superi
react
##arios
##auth
polo
visits
##elta
##ecoach
elev
maker
subt
adventures
repair
assoc
digi
petit
rece
##filter
shoot
import
campaign
celebrity
christmas
promo
##unkie
taboola
creation
tunis
chocol
##eclothing
birth
##bottom
##animals
##campus
mcdonal
##technologies
##mexico
##fields
projects
##ewyork
##centrum
nissan
##awesome
hyundai
hepsiburada
132
aog
aky
ayc
aiw
agw
azt
bsn
bail
bets
bxn
bbg
bzv
bxz
cwr
dlu
dain
dpn
doll
eow
epp
egw
fzl
fjz
gyw
gio
gyg
gkk
ggw
gwd
goth
hes
hkj
hlv
iag
iay
jtl
lhn
lrv
mws
mgd
moth
matr
niv
ndd
nbf
nzl
newl
neu
naut
numer
oel
oyw
omx
ocw
pig
pjn
pjb
rik
rbn
rjb
rhn
sle
scw
syst
tid
tint
tfz
uwy
uug
vrj
wiw
xpv
xpj
xxz
y1
yym
zfh
zbh
zvt
zfz
##blue
##rent
##renhancedysb
##rmachuslazaroqok
##eef
##aec
##xing
##o11
##tab
##tek
##vill
##jin
##maps
##gets
##zle
##corner
##400
##pap
##0u
##828
##325
##134
##etq
##alan
##orst
##atex
##icia
##esorts
##ishs
##lamp
##izc
##usch
##eleg
##abog
##abbit
##abusiness
##emov
##uton
##amid
##urance
##deco
##isth
##reef
##unia
##ikx
##ikum
court
##ogan
##idays
##obili
##uperm
##ovit
##otland
##ecol
##afari
##irz
##imei
##odar
##sti
##lufqbex
##azetesi
##artists
##eback
##uweb
##mgq
##rou
##wyz
##trucks
thefr
##akistan
##andf
##anders
##atti
##okan
jps
##eville
##evolution
##pri
##promo
ccb
##ycycline
##yzn
##yzx
##yzy
##ekm
##oyf
##shv
##nln
##nlw
##cce
##ldq
##ldo
##ctq
##mnc
##qhy
##crit
##ymom
##ygm
##yta
##ejz
##bsq
##ojw
##yvu
spiel
##ghf
##frame
##881
##dru
##whd
##wnc
##aiu
##yje
##yjz
##fsu
##vsw
##cnk
##wvk
##dnw
##mbd
##cjd
##qvo
##kke
##242
##cpu
##zsj
##uyeoya
##dfx
##dbq
##gbe
##gbh
##xty
##gvo
##gpy
seattle
##770
##wbo
##12r
##dpy
##559
##eeo
##mxo
##bjk
##boun
##aqeoya
##nvw
##ykids
##44s
##dmk
##coms
##meiq
crazy
##nhj
##dca
goose
##184
##xjz
##ftb
##ftq
##anko
##inta
##gdz
##btq
asd
##787
##jvt
##14b
##xrj
##mwe
##czx
##13f
##13p
##neo
orion
##jtj
##qgc
##jhx
##qyu
##587
##arsi
##vnq
##erground
##26h
##267
##268
##elsen
##kua
##2010
##kei
##keu
##27j
##hxd
##37s
##gmk
##bgk
adob
adapt
eden
apoll
##1pw
csd
toys
##faucet
##othemes
reform
avant
leaders
##c49
disne
peopl
##shopping
##peru
##proof
resource
capit
playm
students
##888a
ikea
##mobili
wrist
working
laws
oxfor
##profits
create
treasur
president
canadianonlin
cssr
birds
philips
envir
propecia
charles
pokemon
##hrough
concept
lotus
liberty
origin
vwxuv
vodaf
austin
nestle
fondation
##blogging
##egocios
colegi
fifa55
xhamster
911
aaq
atv
abh
awd
bij
bash
bzt
balk
cww
cgw
ckm
ceo
citr
duv
dud
eam
eym
eqm
ecw
ekg
fho
fdw
fzx
ffc
g3
gyc
gws
hzn
hero
iur
iuk
idf
igu
imo
jjt
jagu
kwy
kyg
koo
kcm
loh
lih
lej
luz
lond
lzv
lpv
lnx
myy
malt
mitt
mosa
mortg
nss
ndu
njz
nnf
nhv
nnz
oet
pzn
qen
qos
qam
qoh
qww
qws
quq
rer
ranch
satt
siq
sqq
sai
syk
ska
swd
tbi
uom
uas
uys
uew
uws
uql
uyq
uqm
vjz
wins
witt
xlv
xrp
yeq
yew
yms
ycs
ycg
ygw
zdl
zth
zrp
znz
zrh
##f9
##fight
##factor
##b9
##i65
##aan
##len
##london
##oice
##uits
##jewelry
##cape
##4a7
##646
##576
##2cj
##2pt
##2me
##846
##8a4
##388
##328
##1ez
##1lp
##inis
##invent
##anam
##aneh
##alq
##alac
##alum
##oris
##oras
##icuiwcymao
networ
##lae
##laur
##lapt
##edeb
##rgz
##itet
##itus
##izq
##ased
invent
##iled
##ilig
##elif
##elib
##elpl
##abq
##abm
##abin
##emax
##agents
##olos
##olph
##olars
##rei
##reed
##reads
##uner
##opmassage
##lya
##ogue
##idon
##idem
##kyard
##forb
##ovat
##econnect
##apay
##afer
##estory
##imz
##odc
##igers
##igation
##stre
##azj
##ehz
##ebok
##ydf
##ydi
##yxe
##ajz
##ocq
##ockt
##ywu
##ywiq
##mli
##uwang
##exams
##mgy
##mgz
##ofan
##tse
##udb
##truth
##ersb
than
they
thecom
##akal
##akor
##ayq
##ubao
##dsz
##yzg
chen
charg
##ppy
##sna
##snu
##ijkl
##nlf
##eyer
##ynamics
##tera
##ygq
##kjo
##echan
##echarg
##gso
##nnews
##ortex
##yvc
##mpb
##mpu
##yjd
##qpa
##kpe
##alleng
##xpk
##wrd
##mjo
##mto
##antv
##cpo
##cpg
##gta
##dfz
##dbe
##xtz
##wby
unip
##dxl
##bola
##erton
##tlr
##tvj
##fvk
##445
##442
##440
##443
##guu
##bvy
##bvl
##bvh
##ishes
##nhq
##nhk
##dcq
onlinet
##18r
##nbd
##cuo
##qmi
##16r
##16s
##16v
##xvr
##xvw
##fbd
##fbh
##fbq
##fpc
##goa
##cwo
##fxd
##oftanma
##152
##17n
##hpq
##kgc
##13b
##srl
##23s
##qye
##jxc
##48f
##484
##dgy
##38f
##jlj
##zles
##2014
##keeper
##54b
##ystar
##news24
##bei
##31s
##51v
##eshare
formu
##ermedia
##1pj
##faith
##1nm
##itsu
soap
##3vz
hpc
parl
disco
peoples
##elease
##marathon
weight
psy
jsj
##paul
slots
calv
cheapnfljerseys
##jeans
movi
afford
place
lyon
##ladies
##login
safety
##otrans
volunt
thepirat
flying
ubuntu
bench
decathlon
sarah
##officialonline
kingdom
##computers
immigration
nomad
tonml
backp
##agnost
oakley
segur
config
##organics
##coaching
random
prednisol
prednisone
##ithromax
##lumbing
##onymous
opinion
##projects
##atrimony
##lawfirm
012
455
92
9999
apl
avs
abd
alam
bax
bdg
bjf
cwy
dpx
dlj
dien
deco
eky
eim
eyw
ero
eeg
ebc
fcb
fpj
gic
gug
gqq
hed
hut
hss
hsp
hbg
hpj
hxg
henr
iyl
ikw
jla
jtp
jzx
jfz
kmg
kqs
lvj
lrj
lift
mio
mant
mqm
mwd
melt
nen
nch
nle
oek
ooy
ouk
oym
okc
pfo
pim
pian
pmn
pdc
pvn
pills
qgg
qkm
rde
rhx
sds
szz
skw
sca
tfn
tbf
tabl
uon
uuk
uym
umc
vif
vbl
vect
vzt
vzx
vhj
w88
wide
wcg
xem
xvp
xvn
xbf
yer
yoc
ywl
ygd
zfo
zdv
zrr
zlh
##bil
##dating
##ahr
##aonline
##yol
##hero
##kes
##wick
##zcz
##4a6
##544
##517
##1oz
##1nh
##1wz
compl
compet
##anol
##etes
##etec
##enos
##orns
##arcade
##atep
##atia
##edec
##edaily
##asonic
##chess
cnh
##ilq
##users
##usuiwcymao
##elot
##eley
##amous
##olver
##istik
##reck
##adia
##uning
##ky8
##owi
##iffe
##ecanada
##rating
##apz
##eqc
##ehir
##uvz
dej
##hru
##yl3
##ywd
##uwm
##rso
##akan
##akar
##nso
##ib1
##ugeoya
##prostore
ccp
##ycdn
##yzc
##yzer
##ppa
##qbo
##ihkj
stic
stut
##psg
surg
##hto
##ybz
##ldb
##ldz
##ukz
##uken
##xxxx
##coa
##qhz
##clan
##phis
##ymes
##brz
##cda
##yfi
##yfh
##gfz
shik
aln
##uhi
##gne
##khz
##bbu
##kta
##drk
##whu
##yjm
##qpu
##qjz
##11d
##ozv
##mbm
anh
anch
##georg
##wtb
##dvf
##mve
##dhm
##xhe
##ske
##dby
##dbg
##gbw
##gbm
##wfu
##wbe
##ealing
##mxm
##006
##dxv
##bjl
##bjt
##hhg
##tlb
##uqeoya
##tvt
##nvm
##guitar
##dme
##ntw
##zhan
##bvk
##dcz
##npx
##zzz
goos
##fjb
##fjy
##fjk
##18t
##ao8
##onte
##ftk
##nbp
##xvy
##fbt
##zjz
##fpb
##raa
##bhx
##cwe
##78a
##fxb
##fxw
##156
##aaiq
##34f
##34h
##14j
##bpn
##xrl
##mware
##17b
##173
##italy
myth
##jpm
##apping
##ignal
##21j
##21p
##qkuiwcymao
##vnw
##385
##38p
##264
##xnx
##257
##743
##2013
##37p
elle
scre
ones
autor
csj
##nfq
##2tj
##strong
superc
##owners
##olleg
vrn
genius
##ussian
slow
bitdefender
##eproducts
eleg
cheapest
healthcar
motors
republic
##miner
desert
payment
##ardenafil
howto
##operty
faucet
michaelkor
##uterol
##acruz
patric
customs
##commission
seven
circle
##catalog
relig
builder
generation
civil
##hroid
travels
michaelkorsoutlet
hopto
whois
sydney
amazonaws
famous
goole
##wireless
enjoy
calculator
##eguros
mirror
##alifornia
mcdonalds
112
180
2u
217
246
6g
876
aag
aak
aek
bpr
bms
bbd
bzn
bask
cky
cwg
ckd
cgm
case
cigar
dost
dzl
dvj
dvx
dzv
dlv
days
downloads
dissertation
ela
eik
eew
ewy
eyc
eiw
eft
eqw
emw
ffo
fst
fhj
fnz
fyi
fidel
gky
gyk
glo
heng
hvx
ien
iaw
iok
ibs
ica
jxw
jbz
jlx
kig
kiy
kans
kcg
kkg
lbn
lzp
ljl
mds
miw
mkp
mqd
mlp
mmc
noh
npj
nhj
oes
ole
oyl
odd
pde
pne
pxg
qus
qig
qia
qoo
rbt
rvx
rfz
refr
sth
slav
sort
siy
swg
smw
shot
swm
serp
tfo
tcs
tall
uam
uma
uoc
uyw
uqs
vde
vlu
vex
vfz
vrp
wky
wmw
wick
xzn
xrh
yao
zag
zvn
zjn
##bic
##dum
##rererwyatanb
##nar
##iuc
##lane
##local
##hum
##tex
##witch
##mama
##got
##zoom
##cost
##4vx
##528
##52p
##2dz
##pool
##pulse
##822
##826
##1us
##1em
##1qv
##1bx
##1u6
##infin
##eten
##etools
##alad
##atest
##atwork
##ongo
##isky
##itq
##itation
##itors
##childrens
##osun
##uses
##used
##usiugkeq
##elius
##elivery
##avid
##agz
##istore
##reality
##adan
##entry
##opal
##lyu
##ly7
##esser
coins
##forfree
##ovka
##ecan
##ecard
##estart
##estores
##stz
##stadt
##ivos
##ewart
##ewall
defin
##ebase
##ummer
##tso
##udent
##thf
##thers
##tres
##akz
##akuiwcymao
bruc
##prix
cctv
##ereport
##ekz
cherr
trt
##shire
fred
##menu
##ppz
stone
stuff
usd
##ybuild
##phat
##yground
##ejd
##cdz
##lsg
##wsy
##yfe
##yfa
##gsz
##nnu
army
##gres
##cyu
##yha
irr
##bbe
##quote
##mpy
##ai1
##kri
##uzr
gra
grap
##ooa
##wvx
##11n
##11z
##mbe
##iyun
##mri
##wpu
##mhu
##gjk
##mfu
##24p
##ellness
##dvb
##dhf
##dhy
##gtf
##gty
##ptm
##pthoodivettewl
##gvc
##djb
##mxb
##bjd
##bjn
##bjerseys
##ertz
##fvx
##fvp
##nvx
##nvq
##nrk
##nrm
##444a
##ntb
##outube
##yqa
##bvm
##22c
##226
##221
craig
##nhd
##npa
##npm
drt
##nbq
##xlq
##xlc
##gdq
##fpd
##fhv
##fxy
##14h
##xrn
##vrm
##tpx
##tpj
##565
##ongroup
##jtf
##jtw
##jpx
##jpj
##qgq
##21v
##qkc
##jxn
##inki
##48s
##487
##uui
##354
##74s
smile
##jbq
##27f
##pxy
##31l
##anners
##1rx
##sclub
theart
##jfk
monst
##1lz
##strom
##1jd
newst
##offices
##3pz
swis
##1d5
##otti
slov
anti
lygh
##metic
##ecounty
revolution
##mailer
filter
utah
insights
##itaire
novel
camera
##vault
##iscons
##onsultants
##inemas
prez
##eloans
##eplan
##yclovir
midd
##iagroup
piec
member
baseball
##lastic
##kshire
spectrum
##ecasino
wellness
environment
tripadvisor
uggboots
enterpris
ventur
escorts
observ
dallas
##charity
beyon
academic
iphon
freelancer
historic
##cooking
templates
african
##clusive
##courts
##oxetine
lisinopril
##omycin
##ymphony
##zadsholapet
volkswagen
178
130
96
aaw
aoc
ayg
agd
abt
akm
b8
bev
bgh
cdm
cbn
corner
dla
dnz
donn
efl
exh
edc
ewg
eko
fdu
fuz
fbd
fnx
gmm
gund
gkm
gta
hks
horn
hbm
hzv
horr
harb
iuc
ils
ift
iber
jre
jad
jot
jih
jbc
kiq
koy
kgs
kkd
lup
lzn
loud
mkd
miu
morg
nog
ncp
nvf
oal
oky
oug
oyc
oyg
ocm
pcp
pxw
perr
papers
qaw
qmg
qqs
ril
rov
rbi
ria
rsn
ride
rlv
rose
sww
tux
tend
tzn
tbz
tlj
tnz
uim
vlv
vapor
warr
wales
xhv
yky
yiw
ygs
yyk
ycw
zlu
zrv
##fall
##bys
##blac
##d9
##docs
##rfordlinnetavox
##ranerraticallyqozaw
##sex
##iww
##a47
##hair
##hunter
##virtual
##wig
##uat
##jia
##ming
##mur
##766
##733
##718
##756
##creative
##4i4
##6mz
##513
##part
##812
##8sr
##3vh
##1yr
##1xj
##omatic
##ombie
comun
##inci
##inary
##anew
##aless
##ornv
##arache
##atri
##ongj
##isur
##isiugkeq
##itex
##usen
##elim
##ellas
##abul
##abuse
##emix
##foundry
##avb
##agric
##urz
##istas
##adq
##entech
##ikz
##epub
##epics
cok
coca
##kye
##ensor
##ovideo
##ecth
##estates
##ighl
##ypro
##ewire
##ehi
##ehgf
##bliss
##hri
##ebeer
##ohome
##yxi
##ocuiwcymao
##ocenter
##yworks
##umbs
##ipin
##rsks
##ofin
##ofamerica
##wyo
##thet
##theg
##egz
##formula
brun
##pred
##ycity
##ycloud
chn
chain
trc
traf
##spapers
##ppu
##ihij
##plants
##cci
##ybox
##mny
##ymiq
##ytoday
##yfun
arizon
##yhom
##ddi
##jsy
##quin
##quir
##drug
##xsm
##whz
##yjo
##yjournal
##fso
##fsz
##vsy
##vsfox
##qfu
##allow
##ggz
##dnq
##flw
##flm
##wxm
##mtj
acm
acp
##dvk
##dvp
##qte
##gtz
##wjo
##gbk
##gbz
##wfy
##cvo
seos
##gxi
##551
##ouu
##wlg
##661
##mxd
##cxf
##answer
##kxn
##hhd
##hhc
##tlk
##tlv
##fvc
##gua
##zhe
##bvf
##bvg
##22b
phill
##nhb
##nhm
##363
##njh
##njk
##njt
##onsale
##fjx
##fjh
##18b
##182
##189
##oolkit
##ftg
##fthoodivettewl
##nbn
##nbm
##anke
##cga
##16f
##xvt
##xlr
##xlw
##xlj
##rrh
##inton
##fpn
##fpj
##fplefrostbitecycz
##ltn
asr
##aae
##xrt
beijing
##czp
##vry
##17t
##174
##hplefrostbitecycz
##131
##srb
##kzt
##hlr
##qdz
orch
##appa
##moa
isb
##vnx
##vnu
##bfg
##vhx
##765
##26b
##kuo
##fmq
##68b
##koa
##convert
##heels
##545
##ingschool
scam
##67b
opera
##57b
converter
quotes
##etrain
##mqa
##lhk
meds
##1lv
nrj
##1f6
##older
##linux
##atron
##2day
blogger
##enner
##1c8
psd
##resource
schwe
slide
##aturals
baix
##1y3
##zeitung
salam
##ucker
insta
##bookmark
##clouds
milk
cambridg
studios
logistics
deliver
##onicles
##ispatch
archive
##ifications
##anyon
saveth
##parad
dailym
midwest
##urvival
##ebsite
##motors
##professional
##funds
astro
viagrawithout
basic
##creations
##arabia
rocky
horizon
##yplus
##edesigns
colorad
##oguide
willi
publish
tracking
queen
template
##apolis
joomla
##advertiser
adventur
ielts
buffal
awesom
##architecture
grammarly
1i
163
2e
2o
3o
3u
760
8y
8u
bew
bust
bvf
bott
cbb
cdc
ckg
daz
dcs
dair
dbm
ecommerc
fill
gwy
giw
gzs
gsk
gosp
gogo
galler
hist
hih
hipp
iuw
iwy
iww
iws
ibt
jlu
jdg
kec
kyk
lix
ldg
lhv
mky
mls
matur
nla
nef
nij
nzx
nxz
nico
oun
oac
ouw
onn
onv
owg
ogd
oqd
pdw
pvj
pbz
peach
qag
qow
qks
qkk
rcs
roj
rpj
rental
roman
sht
sdj
scdn
taj
tand
tpj
u1
uky
uac
uiw
utt
uck
vos
vre
vjn
vjb
wey
wgg
xjh
xvt
xzv
xlj
yaw
yuy
yck
ymx
zel
zah
znx
zjz
##row
##s4
##shoes
##iens
##iov
##iagr
##iration
##hir
##here
##weg
##wifi
##uks
##mcc
##mons
##mone
##728
##zan
##cub
##case
##451
##41p
##613
##638
##5i4
##2ef
##214
##pag
##party
##831
##81s
##3kz
##376
##1vj
##1i4
##omid
##etica
##enation
##orus
##orsk
##arom
##arna
##atak
##atie
##icol
##icap
##onitor
##esand
##israel
##rgy
##izb
inj
##ilin
##elia
##elph
##abal
##abas
##utur
##avvy
##aguiwcymao
##agawa
##leather
##adores
##epz
##ixer
##hours
##hought
##ioni
##idata
##kyz
##obin
##upal
##upid
##ensen
##qoellefrictionlessv
##ovod
##ovision
##estin
##imex
##improv
##imaging
##ucz
##odos
##stra
##ehen
##blocks
##ohealth
##oces
##ocam
##ocode
##ipei
##ipper
##rsfox
##route
##irekt
##ieren
##thef
##ayat
##ibao
brid
brother
##evz
##pride
##practice
##wwu
##yzz
##yzp
##spir
##sher
##shipping
##snk
##nlc
##ihgf
stark
practical
##mse
##co6
##cra
##clic
##phb
##brd
##wsiugkeq
##klinks
##cba
shaw
alw
alib
##uhui
##iei
##ddz
##yvd
##yvwx
##frq
##fred
##uzn
##fsy
##vsq
##vso
##wrc
##wright
##ozp
##qvm
##ellence
##qtz
##zs1
##asto
##gtq
##xhc
##kfurt
seat
##12e
##557
##55c
##dxm
##bjv
##booster
##tlh
##tlp
##yko
##44f
##zhong
##bvt
##220
##jrl
phone
##nhl
##npv
##zzt
dron
##assess
##cgo
##cgm
##fbw
##fbm
##kdo
##zjh
##yyo
##cmy
##cmu
##qwz
##ci4
##fhg
##bhw
##bhg
enf
##jvp
##fxn
##kmq
##15b
webhost
##34c
##qzx
##qzt
##kau
##vrt
##17z
##sry
##aceut
##hlx
##237
##auo
##210
##moq
isla
##vpb
##qku
##bxg
##48n
##jlq
##jbg
##fmk
##54z
##54p
##pxm
##yeu
##hxg
##vjf
elc
##51t
##67d
##67z
##bgq
msg
ntd
nty
##xwk
##1tg
adobe
##ermagazine
interior
##jfq
##3t7
carolin
npm
##arias
avis
##erries
##affairs
##iament
##escape
##method
calc
motiv
##emple
##empre
making
##ippers
##rmassage
advanc
stra
koeln
multis
multim
compar
americanc
americans
register
##ourself
myster
maths
muslim
davids
axis
##universal
##ainting
##emplate
##aplan
##effect
investment
##ocracy
bayern
luxury
thenew
coachoutlet
dyndns
thetech
square
##2008
trusted
alask
mulberr
fleet
pelis
infinit
deutsche
##greed
##esponse
hermes
aviation
##initiative
sustainable
##advocate
136
110
24h
4e
400
778
880
awy
aiy
awm
axa
buf
bip
biq
bek
bcn
bdo
bbq
cdl
cdp
cgd
cqw
cmw
dzp
dhn
dfw
egd
era
ert
fuc
faq
gds
gdn
gck
gqw
github
heh
hdg
hxf
ior
ibr
idp
iuq
ilp
jis
jard
jbi
jub
jhn
jersey
jordans
kck
liz
lfo
lde
lfn
llj
mns
moss
miq
mort
mkg
mong
mmq
merr
mister
nek
nuk
ndc
oaw
oig
oyk
otp
pew
paj
pzv
pjf
pnz
pinn
pops
period
qan
qis
qqw
rdu
rio
rzh
rdw
rsr
rfw
sck
saq
samp
sno
sush
sext
tent
tqv
tfx
vat
wug
wgl
waq
ware
wend
wars
xdm
xhn
yeg
ygg
ysk
yelp
zpr
zxs
zfl
zdw
zbf
zjb
##feng
##bian
##bux
##bands
##restnessbiophysicalohax
##rvinskycattederifg
##rbyplaywobb
##rllaabettingk
##number
##iiv
##yes
##hand
##kart
##kino
##vil
##u9
##uar
##ubi
##jian
##mirror
##713
##corn
##4tp
##4gz
##5ch
##521
##532
##2aw
##2hr
##2kz
##2lp
##2a6
##pictom
##816
##878
##1ab
##1am
##1ip
##1sp
##1yn
##1gh
##1hh
##1bp
##1kz
##1vl
##in2
##in1
##ereal
##eteam
##alore
##orio
##aros
##areal
##ateway
##ongb
##esource
##lauth
##lauren
##rgfqbex
##chir
cnt
##usan
##eload
##abella
##emos
##emall
##utan
##ammer
##urkey
##oled
##olmn
##adw
##unis
##ikas
##ikos
##eportal
##hoi
##lyfqbex
##ogam
##fork
##forg
##owsatformalisticirekb
##acare
##ovic
##ovsk
##otube
##ectl
##rath
##estead
##ewi
##azb
##azx
##azl
##ufz
##ydirect
##yxa
##kbank
##ocy
##umar
##uwi
##rsy
##etten
##wyu
##inshoes
##inspi
##trades
theth
thenews
##nsfox
##andom
##forme
##okm
##fanansnan
bru
##prc
##obby
ccd
cci
##ycu
##yzb
chel
chels
##spirit
##shell
##sheet
##shandbags
fra
##qbe
##qbu
##nlq
government
pror
mean
##ukan
##jjz
##ymz
##csq
##angt
##ojz
##gfa
##hsz
##nna
##qse
##qsiugkeq
##glz
shor
##ie1
spy
##jsz
##88s
##drl
##drq
##drav
##drugs
##ezd
##uzk
##uzg
##ooi
##qjd
##ue7
##dno
##qvd
##wpz
##kki
##inders
##mfest
##kv4
##ellen
##xhn
##ptk
##dba
##dbc
climate
##gxz
##gxin
##12x
##12h
##12v
##wlo
##cxw
##anson
##bjg
##tlj
##tvp
##ntf
##comb
##communications
##bvb
##bvw
##bvj
##22p
##222a
##jrd
##jrc
crafts
##nhv
##npg
##zzy
drivers
##fjd
##fjw
##18k
##unda
##assoc
blo
##ftd
##qmo
##xvg
##xlv
##xlz
##yye
asb
##goal
##fhb
##oftmassage
##kmc
##153
##347
##14q
##141
##xrd
##vrl
##17p
##hpm
##bnf
##bnw
##jtk
##586
##580
##vng
##weets
##282
##jnm
##vhv
##dgm
##38b
##jlh
##bitcoin
freev
freeweb
##25f
##qeu
##353
##actus
##fgq
execut
##vlq
##heads
##pxg
##hxw
##issen
elf
##zno
##vxm
##464
maryv
##47s
ntk
##erna
automot
##1tz
edus
##452
##vfq
##2hj
##nfk
##worker
##lassifieds
swed
##ograd
fiel
##3l1
neon
##itting
##2x7
##1q3
##icture
scho
schne
manual
manager
##itchell
heat
##1a1
##4kids
pfizer
##huang
healthcare
diabetes
datas
micros
hsbc
taylor
##desig
##martin
##registry
##theory
nikon
volks
photography
##uther
##ographic
##oppers
lifestyle
##addict
remax
##economy
lawy
bankof
facts
##streaming
##nature
korea
energie
##classifieds
##emedical
private
wisdom
charity
##telecom
##atterns
##uperstore
growth
political
nordic
quantum
america
precision
##ebuilder
jesus
##ublishers
goldengooses
serveirc
object
##perfect
tiffany
downtown
georgi
stuttg
288
8m
899
aly
aow
abl
aay
ayk
ayy
aqw
akg
agc
bia
buh
bcj
bath
bpv
crs
ctt
ckk
cdh
cqg
doy
dance
dual
eqd
fdc
fbx
fxw
fbz
gcg
gcm
gwm
getr
garr
hde
hbi
hww
hoj
hvt
hits
hood
hope
hentai
iys
ikm
jzp
jbd
jlh
kky
kmm
laj
lee
lock
muq
move
nul
nsn
nie
nish
ngo
note
nimb
oic
ouc
oum
ock
pww
pjz
qmw
ryb
rast
rbz
rhj
rnz
siw
sgg
summ
settings
tde
tank
tng
tricks
uan
uos
uag
uig
ueq
uiq
vbf
wym
xml
xvs
xxf
yard
yqm
zi
zxp
zpj
##bun
##body
##ridablyhoosieraw
##ralitydevonianizuwb
##rrasildeafeninguvuc
##rank
##nor
##iax
##xian
##yard
##los
##kick
##wet
##uid
##gard
##711
##7oz
##codes
##4eb
##4jh
##6xv
##5th
##536
##2jt
##2zr
##874
##3dv
##3vt
##1on
##1eb
##1yx
##1uj
##1cn
##1bt
##1jp
##1vx
##1a5
##omz
##inox
##anah
##ansk
##ernb
##erra
##aled
##alink
##orum
##atam
##icians
##onents
##isine
##edeal
rut
##charl
##ilik
##elove
##abes
##abah
##ysite
##ysuiwcymao
##emad
##emac
##emia
##emellefrictionlessv
##emobile
##utra
##aget
##amobile
##olia
##olymp
##awfordlinnetavox
##awanerraticallyqozaw
##rech
##address
##ulan
##uncher
##opera
##ob8
##obel
##ancom
##acan
##apet
##imet
##igit
##stil
##ivid
##ypz
##azr
##artmuseum
##eban
##ebet
##ebest
##yliving
##ocare
##uwvinskycattederifg
##uwllaabettingk
##bifox
##roots
##thom
##thly
##tracks
##egod
##egreen
thiet
##attoo
jpn
bry
brands
##efly
##eftp
##efactory
ccn
##chonline
##ajans
##yzd
##yzt
##eking
chan
change
trus
friend
##meng
##ijin
##ijob
##ijgh
##ihon
stage
printer
##plat
##ff5
suh
subl
##clf
##bsa
##kjz
##kni
##gsa
##klist
##nnz
##qsuiwcymao
##mmo
aren
##grz
##orta
shine
alj
##yvwt
##gna
##eaux
##khij
##quality
##ezl
##yji
##fsq
##kpu
##qfe
##alli
##xpu
##ozg
##dnb
##flf
anc
##mru
##wtz
##24b
##24a
##dvu
##zsm
##zsfox
##cfu
##dbz
##cku
##wbg
##12p
##dpk
##66b
##bjx
##boi
##boq
##339
##fvm
##nvd
##ykm
##dmq
kredit
##outer
##22f
##223
##earl
crown
##npd
##fjn
##fjc
##18v
##18z
##xjq
##xjk
##ftm
##16g
##xln
##fbk
##rrf
##rry
##rrp
##fpq
##lty
##goi
##fhf
##bhm
##bhp
##fxq
##15x
##157
##151
##14c
##xrc
##vrp
##17l
orbit
##bnk
##bnc
##jpy
##21r
##21t
##21w
##qya
##58b
##bxy
##jxy
##wdo
##ichen
##48b
##48j
##mcq
##768
##38d
##38v
##26p
##25p
##74m
##fgk
##68j
##pnx
##heaven
##ystudio
##31r
##bdk
##51s
techt
forever
##47b
##bmk
##ua5
##1rq
##1rp
##ernow
##etraining
##1s1
##3rj
##nfy
agenci
##berionirkutskagl
##1xz
##presso
##1nz
ssd
##3p8
ppc
##1f3
sounds
ecos
saas
##1d8
lhc
peer
peuge
##atres
buym
polar
mania
##1e4
metform
door
reserv
antip
##1a2
ultra
society
eleph
##foodie
##logistics
volt
linkedin
voip
photoshop
designer
value
holland
justice
liber
touris
technologies
northwest
##omains
##orough
##ughts
harvest
##camera
##itzer
sante
##entrum
bayer
nexus
##dealer
wallpaper
chicago
##uggest
doxycycline
vacation
wheel
kyrie
pepper
scottish
germany
##authorized
##original
##ohnson
knowledg
amoxicillin
vodafone
077
116
6c
788
avv
akw
aka
adg
aids
bbi
bcs
bao
bbm
bnx
bng
bever
bazar
basket
cde
ckx
dle
dof
dgp
djb
djz
eds
ekd
epo
fax
ffm
fvj
ferm
fiber
gain
gill
gkw
goto
hkd
harp
iky
iak
ipl
iee
iyq
imw
jit
jsn
jets
kost
kqq
kaq
kmw
kond
lle
lbi
laro
lfg
lamb
mps
naw
names
niag
oar
oos
oew
oiw
ohs
pang
pgv
pfm
pzx
pxf
patient
qym
qgs
ral
rop
rsh
resh
sina
slp
serg
szt
sunt
sonn
tav
tug
tbw
tpv
txf
uer
uec
uww
ucg
ucw
vle
vqp
vzs
vdc
wwy
wia
wyg
wqs
xle
xrt
yww
ykm
zvs
zxz
##right
##site
##sale
##services
##easuredehydratorysagp
##eah
##nest
##nurs
##nepal
##iuh
##a67
##loro
##hua
##kir
##wav
##welt
##ueb
##ulas
##mine
##mym
##mund
##great
##7qz
##zak
##cinema
##4a5
##61j
##535
##52z
##52j
##2ex
##2xv
##2qz
##213
##2a7
##8tl
##8xv
##834
##835
##3of
##3xn
##3jz
##1xs
##124
##1pt
##1dx
##1zz
##1lt
##1mz
##1jh
##1i5
##1c6
##inot
##eritage
##engo
##alike
##arah
##aters
##atabase
##icloud
##onor
##onis
##esiugkeq
##isho
##edag
##edata
##itong
##izx
##iz6
##izp
##izing
##asas
incom
##ches
##chas
##chop
##chim
##chair
cnn
##osal
##us2
##us1
##abor
##ysi
##utah
##utton
##avens
##amor
##amagazine
##lease
##olics
##olland
##de7
##oporn
##eplay
##hoop
##hound
##esso
coder
##ioned
##oglu
##idis
##owing
##enster
##ovar
##ovia
##otiv
##ecenhancedysb
##ecmachuslazaroqok
##ecsagabardinedazyx
##stoc
##ivor
##ivic
##lui
##ypay
##eqz
##ehelp
##artis
death
##ebz
##ebiz
##yler
##ohan
##umz
##mlon
##ipay
##rsu
##bios
##ofit
##oflife
##wyc
##akq
##ayama
##iben
##ibility
##uguiwcymao
##okuiwcymao
bristol
##eves
##efinder
##ds8
ccf
##yzw
##ekit
chas
chamber
##duu
##iwz
##qb5
##nlz
##ihub
sto
stadt
##ffi
##oste
##osters
##yni
##crow
##cribe
##lsq
##angroup
##yfre
##kli
##qsellefrictionlessv
##yra
##gri
##cbz
##quamentalistfanchonut
##quowupblossomylixuf
##driv
##wne
##aiiugkeq
##yja
##uzx
##ooe
##qfi
##qja
##11l
##11c
##ozb
##ceu
##dnk
##flq
##dvm
##astle
##gvq
##iesc
##gpf
##gpo
##77f
##gxe
##dpo
##dpu
unif
##66x
##ee7
##bjw
##hhw
##331
##tlm
##uqz
##aqy
##tvb
##tvh
##fvl
##nrd
##nry
##nrt
##nru
##ykitchen
##guid
##dmy
##ntq
##zhen
##zheim
##yqz
##meo
cracks
##nhw
##iiiugkeq
##njl
##illen
##fjg
##endi
##18p
amc
amway
##16j
##zjv
##fpo
##ltf
##ltg
##qwo
##bthoodivettewl
##kwiq
##fhw
##bhl
##gwu
##jvg
##fnk
##154
##34r
##14s
##14x
##14p
##bplefrostbitecycz
##17g
##13h
##13v
##13g
##hln
orb
##56s
##bno
##qgy
##21f
##acha
##dzx
##usta
##jxb
##289
##486
##jng
##26z
##25s
##25z
##254
##250
##68d
##congress
##270
##poe
##engage
##vjw
##fcq
##vxk
##51l
##51g
##gmq
hrh
##fwk
msd
ntm
##575
glen
##1rt
auth
##1t6
emag
rrb
csm
##1hv
##2sv
##3sx
##wqa
htc
##adex
newport
bjc
##2v8
##3z5
##3v5
dtx
rela
bharat
##lasvegas
##1d7
##5h7
offer
jsf
telug
schul
casinos
century
bigp
funny
calendar
export
solo
chrono
playb
siemens
mcafee
##000a
##october
##ferenc
americas
##career
##uttle
##parent
dailys
##economics
technolog
thegio
heritag
##operties
influ
##winds
melb
##iansen
##owling
tuning
##engineer
lasix
##alpha
sigma
broker
##questions
##machinery
enterprise
##colleg
xiaomi
binary
messe
graphics
naked
##unjab
gesundhe
medicine
coffe
industry
cannab
cannabis
articles
favor
chinese
country
iptv
running
affiliate
citizens
merlincdn
##ladder
##guitars
2a
7o
aym
adx
awg
ada
agm
bef
bcd
bast
bzx
cams
celt
dug
dmv
dans
dfm
dbz
dnf
dng
eok
edr
ekk
etp
eqg
fde
gardens
gai
gdm
gfb
gqd
gmd
gmo
gust
geth
hek
hsh
hgh
hour
hide
hfm
hnf
hudson
ilu
ime
ivr
ikc
jem
joc
jzv
jxg
jimm
kens
lho
luv
lech
lgh
ldw
lern
mers
mie
muy
mend
mask
nix
nyt
nath
nba
nitr
oag
ohr
omd
oasis
poh
pgf
pint
pbw
qic
quc
qiw
qpp
sdl
sio
sdh
sdf
sfb
sapp
szl
tiv
teb
tai
tez
tfg
tsl
torr
tickets
uoy
uwg
umd
uwm
vix
vec
vibr
ward
wuc
wns
wwg
wkd
wkm
wwm
xre
xjz
xxg
yws
zav
zvj
##flex
##brewing
##district
##rus
##rardenslavetusul
##rancorml
##rleasuredehydratorysagp
##eos
##nan
##noluasm
##yal
##wins
##mult
##mods
##metr
##gym
##7cz
##7mz
##creen
##cities
##4ez
##4xj
##5ys
##578
##5cz
##5mz
##5a7
##2ez
##2xj
##2cz
##2vj
##policy
##8wn
##824
##836
##8xj
##8wz
##845
##3yx
##3cd
##3jr
##3i7
##1af
##1yw
##1qq
##1uz
##1mb
##1kv
##1zh
##1a6
##omarket
##anik
##erica
##aral
##aric
##aron
##ongl
nett
##is2
##isure
##labo
##ed4
##edal
##edirectory
##itup
##itizen
##izv
##iz1
##asht
##chinese
cnb
##ilet
##elor
##ab7
##abob
##abot
##abaj
##emoon
##utlet
##utnik
##av6
##amur
##amad
##urat
##awan
##debt
##istina
##enti
##entin
##ikey
##epet
##epass
##lyi
##kyour
##fore
##forwomen
##ownt
##upun
##qodsholapet
##ifax
##otop
##ecream
##ecmas
##aping
##apac
##aportal
##imas
##imir
##ucdn
##oden
##iguiwcymao
##igotg
##iv3
##ivylv
##azm
##bloc
##uv4
##maiugkeq
##ebie
##aj7
##ywz
##umor
##ml5
##uw6
##ofz
##ofre
##ksmen
##roun
##wye
##iaonline
##theworld
##trz
##trak
##inaafor
theco
##formen
##ssiugkeq
##princ
##dse
##dso
##dsu
##yzj
##ekids
charm
##short
##ahz
##snz
##nlo
prr
prada
plr
itt
italian
##msi
##msy
##pso
##xxz
##crz
##crypto
##clark
##clock
##client
##phim
##io6
##ytime
##yfc
##hsu
##qsu
##cyeoya
shark
alfa
##uhan
##ationgreed
spider
##qrst
##jsfox
##bbo
##quar
##frc
##friday
##ktech
##drama
##whi
##wnz
##ezer
##uzv
##fsm
gren
esk
##qj4
##111a
##ozd
##ozl
##flife
##wxu
##geiq
##wp8
##dte
##gjz
##24x7
##qtwv
##cpz
##zsw
##asti
##dhz
##skills
##uyou
##dbu
##12k
##12t
##12w
##554
##ouo
##kxe
##bjy
www9
##fvd
##fve
##nvb
##44n
##dmi
##oute
##outlook
##yqi
##commun
##bvu
##nhg
##36c
##36p
##npb
##npw
##npc
drink
##njq
##njw
##fjq
##18d
##18j
amd
##xjh
##ftw
##nbu
##qmz
##xvb
##cmq
##ltu
##btk
##fhj
##bhy
##bhv
##gwe
##gwo
##jvb
##jvh
##jvq
##jvo
##fnf
##fno
##15r
##15h
##aa4
##34b
##14l
##14g
##xrb
##qzg
##vru
##171
##56d
##bng
rolex
##23b
##jhw
##jhj
##vpj
##qke
##myi
##myu
##bxf
##jxm
##many
##lpx
##lpg
##icha
##ichael
##28n
##48a
##jnk
##vhw
##26t
##xny
##zpc
##qeiq
##74x
##746
##2011
##jbm
extra
##684
##vlj
##heu
##heel
improv
##547
##wmk
##31g
##37x
##37h
##hnm
##vxw
##46k
scand
##bgc
option
msj
##57j
##57p
##104
##uaiq
##32x
##1rf
##ermusic
##vfk
##2s5
##3sv
##1x2
##1lb
nrm
##75f
##75s
bjy
bjm
##miami
##2vz
##ither
btb
osj
##3p4
##3z4
##rvb
##190
##oshima
reis
reed
greenh
##inessb
##ighth
disp
##1d4
##1d6
##intern
maur
##atering
##anetwork
##1m3
##ennium
##3f7
sims
##ementioned
telecharg
##1e7
##advance
##boxes
houston
meta
socc
##leplay
much
experts
##303
realestate
##erking
##foodbank
##808
chinab
digic
groupe
##ackson
valle
jeux
##aciones
ultras
##ienton
##999a
idea
javas
##heritage
second
dreams
##corporation
gazeta
##enough
patriot
mercur
pacif
##ospitals
##shipecmas
juegos
##creator
softs
audit
bikes
zeitung
fortun
wholesalecheap
squar
extreme
##criptivylv
##imentos
without
##window
freelanc
apteka
pandoraj
##guardian
ranking
reward
##yguide
hobby
buycialis
##irections
##ewellery
##leadership
jefferson
evergreen
##ehmsigotg
williams
peugeot
##inaaforementioned
##ationgreedinessb
##shipecmascriptivylv
##inaaforementionedagf
233
488
886
8sb
abi
afs
ame
afd
bif
bai
bong
bnf
bxc
baker
bomb
cea
cdj
ckw
ceph
dch
dcf
evv
edv
eme
ekm
fiz
fing
fim
fct
fars
fern
fnf
gdd
gkd
garn
gourmet
haj
hoy
hej
hgf
hain
hone
iin
ipr
ioy
iwg
ikd
iqw
iau
imc
jut
jsp
jcd
jcb
jry
k9
kyw
kao
kmd
lur
lyb
lbf
lands
mwy
mkk
mons
mcw
mair
mosh
neh
ncd
ndw
nsr
nfd
nerd
oin
oan
oam
oey
ogs
orr
omw
oqg
pdm
pbd
perc
qal
qac
qum
qey
qyq
qkd
rlu
req
rdc
rfg
rpx
stom
sii
sass
sold
sense
sytes
tox
tien
towns
tehn
uia
uak
uek
uqd
vdu
vdm
vash
vfm
vfw
vbg
vlx
wph
wck
wint
wgd
wkw
wgw
wats
xer
xvj
yuu
zig
zyx
zpx
zithromax
##fon
##fla
##fitters
##bond
##bury
##ray
##iud
##iyg
##aem
##year
##long
##hack
##kreis
##woman
##wigs
##uae
##gamer
##758
##cue
##cancer
##6vv
##600
##5xs
##5c6
##2ax
##2vv
##276
##274
##2zx
##2jz
##0i
##8dz
##8zt
##8a7
##3at
##3ot
##3zz
##3a4
##3i6
##1xx
##1dr
##1qn
##1xp
##1sr
##1zx
##1jz
##1i6
##1u8
##omor
comics
##inon
##income
##enen
##enia
##alah
##arvest
##esion
##isions
##lament
##ed2
##ityd
##as7
##aseball
incred
##chase
##ysinalcentricem
##ysiologistbikerepil
##ysrsensinaix
##yschool
##yssikathrinezad
##uteb
##leans
##olib
##olta
##un6
##ungt
##epar
##epower
##ixz
##lying
cooper
##iong
##ogas
##ogidablyhoosieraw
##ogalitydevonianizuwb
##ograsildeafeninguvuc
##ogsemitismgavenuteq
##kyenhancedysb
##kymachuslazaroqok
##owell
##acia
##acmen
##qo5
##ifang
##ovik
##oton
##otics
##ratch
##apest
##aphr
##aporn
##im4
##ucom
##stag
##steps
##ivec
##ewish
##azw
##azon
##bl4
##uvst
##ydon
##kb8
##yway
##umbr
##uwz
##uwen
##ipan
##exz
ukraine
##ksorcajanunal
##roa
##uder
##udget
##thz
##egirl
ths
theal
##andre
##ibor
brr
##wwz
##yci
##yzv
children
##oyuan
##ah4
fron
frog
##qba
##ih4
stc
stroy
prad
##plf
pls
mez
itb
##ffz
##xxu
nls
##ymagazine
##brains
##io4
##ygame
##ygirl
##yton
##ej7
##ejobs
arman
##gren
##graf
splash
##jso
##quot
##quebec
##fruit
##vse
grass
##cna
esg
##kpa
##ozk
##flz
##flivre
##iyou
##gje
acer
##ptf
##skins
season
##77n
##ertools
##tvr
##tvn
##fvq
##nvk
krasn
##zhp
##earing
cru
##364
##npq
drb
drr
drv
dres
##njd
##wgroup
##aoe
##ao7
amz
amateur
##ontech
##ftx
##ftj
##16t
##xvl
##fpk
##fpw
##cmw
##btd
##btg
asw
##fhl
##bhq
##cwu
##cweb
##dwz
##jvn
##fxk
##15t
##34d
##qzp
##kgy
##hlp
##mzb
##cau
##dzy
isd
##usters
##bxd
##ween
##ichealth
##28s
##28j
##28c
skills
huay
##48l
##jnc
##vhd
##38h
##384
##jlb
##jlg
##25w
##251
##352
##jby
##682
##27s
##31d
##31p
##hxq
##37f
elk
##51k
##46b
##46v
##eshd
wholes
##67v
onc
onion
msc
ntc
node
##32d
##32l
##etrack
autot
##65s
##65p
##lhg
rrn
##87b
##2sz
monkey
##852
newz
carre
azithr
##1noluasm
eve
evening
osb
ssm
##ollars
ppm
##magazin
##8tz
##1b6
##arius
##oodle
vtb
##itte
leaf
##6pf
##1c7
##4j6
indir
schm
schloss
##1e8
antik
##insta
##emp3
datac
microb
finanz
strom
corre
##outhern
##isplay
citizen
##oscope
matthew
##enetworks
tourist
christoph
kamin
kamagr
cosmos
infom
##officialauthentic
moment
scrib
##aresort
##artnership
##untry
##iego
patent
penis
##lastics
hitachi
##trolux
writer
##iddle
##native
equip
##transit
##machines
mazda
##degrees
products
wholesalen
teachers
signal
##inspired
hiphop
##graphic
early
pittsburg
islamic
##accounting
makeup
applied
##edepot
louboutin
##oftwares
fitflop
##cruises
##complete
##ufacturing
##opurinol
##attorney
149
499
480
533
550
890
aqm
aqd
akc
apo
aapl
bav
bou
bare
bush
cwd
cbf
cycling
dgs
doj
dubl
eak
edn
feh
fux
fgh
finc
glu
hov
hlu
hqh
hort
hsr
hfg
hfw
hxw
hosp
iek
ibb
iaq
iyk
iqg
iheart
jov
joj
jqp
jbw
jord
jnf
jng
jones
kcy
kuq
kkw
kong
kyo
klass
lut
lank
ljb
lbw
lng
lxf
luck
lidl
mmo
mbc
nmm
nour
nbg
oeq
obl
ors
ogm
pmp
pioneer
qak
qok
qsk
qwg
rix
rmm
race
rdg
rvf
rosh
rams
rise
sde
sdt
srp
toc
tef
tgf
tyr
tdm
tdg
tutt
uaq
ugd
uwd
vbc
vfg
vzn
vxz
village
wks
woy
wqw
wcw
wmd
walt
wave
xav
xdc
xsr
yqo
zpn
zlj
zlv
##fum
##ihr
##auv
##auk
##o9
##ved
##vit
##jav
##myc
##mass
##7zz
##737
##7lr
##71x
##7i7
##7rp
##camer
##cious
##4us
##4af
##4cz
##4zv
##4free
##6eh
##6uf
##633
##5wx
##5cj
##548
##5fz
##2dl
##2ns
##2ux
##2yg
##2bh
##2jh
##2wz
##2fz
##photography
##866
##800
##8zj
##813
##82r
##83s
##8i5
##3br
##3kj
##3gj
##3gx
##3lp
##3a5
##1ut
##1ml
##1rs
##1ev
##1ij
##1ms
##1kj
##1bb
##1wn
##1mf
##1gp
##1fh
##1hp
##1gz
##1zt
##1sl
##949
##omsatformalisticirekb
comfort
##anza
##alim
##ornp
##orange
##arag
##arity
##argo
##icai
##icorp
##onweb
##esun
netflix
##ised
##lainalcentricem
##laiologistbikerepil
##lapp
##lasc
##lasikathrinezad
##edis
##edul
##ityl
##izd
##iz5
##asim
inth
indo
##chka
##charter
##ilos
##osde
##osites
##usepictom
##election
##elements
##abiz
##ys7
##em7
##emis
##ematic
##avz
##avit
##agos
##amir
##amart
##amarket
##ampton
##leich
##urus
##istanbul
##reate
##adet
##ultr
##unst
##opz
##epad
##eparts
##ix8
##obus
##owz
##acamentalistfanchonut
##acowupblossomylixuf
##acpartbulkyf
##enson
##ec5
##econd
##af7
##inea
##ineh
##iram
##estuff
##imit
##odan
##iv4
##azq
##uv5
##ufen
##mais
##hrop
##ebal
##axin
##ocent
##ummy
##ex4
##exxx
##ofil
##ofra
##iero
thund
##nsz
##ib4
##ibel
##okat
##evan
##devices
##efgh
##dsellefrictionlessv
ccl
cck
##ekenhancedysb
##ekmachuslazaroqok
##eknik
chatt
chick
cheng
trz
trum
##special
##shealth
frr
friv
fried
##ij6
##ih7
##ih6
##ihome
ster
storm
prd
##plz
##uxz
##psu
##psz
##jjo
##jjardenslavetusul
##jjancorml
##jjleasuredehydratorysagp
##ymuseum
##ygz
##cs6
##qq1
##kna
##ujz
##nni
##yrz
##tti
shj
shab
always
##ie7
##yhz
irk
##88p
##drivers
##ezj
##ezon
##uz5
##cno
esv
##qji
##gge
##xpert
##ceiq
##dnu
##flk
##qve
##qvz
##arkov
acv
##243
##xhu
##uyvinskycattederifg
##dfellefrictionlessv
clothing
##xte
##xtc
##gve
##775
##77p
##779
##gxo
##worx
##12z
##55f
##66f
##bju
##hhb
##33r
##nvy
##44d
##dmo
##ntk
##ntg
##zhj
##zhfordlinnetavox
##zhanerraticallyqozaw
##jrx
crist
crowd
##nhc
##36h
##npk
##njn
##njm
##illon
##185
##183
##undy
##ontario
##xjn
##fty
##nba
##nby
##cua
##cu7
##16d
##16z
##xlb
##xlh
##fby
##rrd
##rrl
##zjl
##cmo
##ciu
##btn
##btx
##rae
##78j
##784
##785
##dwe
##gwm
##jvw
##fxc
##fnd
##kmw
##15a
##15v
##159
webmaster
##34j
##3456
##bpf
##mwc
##qz8
##vrf
##vrh
##hpb
##hpo
##13m
##139
##tpf
##tplefrostbitecycz
##hlh
##mzf
##56f
##jtx
##dzp
##vpv
##vtx
##58d
##58x
##582
##buu
##ichn
##28h
##vhf
##vhg
##ergames
##76v
##76j
##382
flowers
##35s
##actu
exchang
##qc6
##54r
##546
##31f
##31z
##31c
##hxm
##vjq
##hng
##uoi
marks
forward
##67h
##67t
##67p
ond
##47l
##47t
msm
ntg
##57d
constr
##10b
##109
ilc
##32h
##32m
quan
quicks
authentics
adams
theatre
edin
##45h
apply
##ermes
##1sv
rrx
csx
##1hj
##1h5
##64s
##ordon
##2rn
##2hf
##2hd
##1lk
ttx
ttj
ttm
##1jw
carp
##2v6
##1nq
##1nw
##3h6
evolution
evolv
osm
##i4s
##ushu
superf
mous
mode
##erous
leipz
##2x1
##interview
ksa
##authentics
reds
##groups
##2d7
##2d4
##1m4
##3n8
##1k7
##4life
visa
##1e6
##1e3
centur
anton
antiqu
pais
paypal
elearning
##5c5
expedia
experi
digitals
##booking
recovery
##tuary
label
eyes
##ublications
valid
valley
showb
##equity
##urrent
##tronik
jeans
##production
thegl
##emagic
##newyork
192
##asyon
divorc
##computing
native
investing
discovery
aqua
aquarium
##ready
##entrale
##version
##luxury
renov
walmart
myddns
lighting
budd
wallpapers
markets
##islands
##royal
corporat
houseof
ultrat
economy
##erspace
##developer
##leaning
##iglobal
##shield
##themovie
kayak
paradis
suzuki
physics
onlinecasino
accounting
bundes
##follow
##strategy
doubl
##utilities
northeurope
##elpline
155
158
348
4o
5u
588
664
8o
866
ahr
abo
abp
awa
alab
axi
bsp
bour
bors
bsc
beck
bolt
ceq
cie
cdt
cyk
cricket
dcl
dgl
dust
etr
eoy
ehs
erb
fic
fss
funt
fzn
furniture
fuku
gma
hdu
hiw
hcs
hkl
hkp
hcp
hcm
hach
hbc
hbw
hxm
hamilton
ier
ieq
itr
iqs
idt
idm
ihk
jig
jml
jok
kate
kamp
loo
lou
leo
lapr
mue
mqw
mrb
nsp
nct
nbw
oma
oay
ouq
ohl
owd
ostr
pau
pbm
punch
pulse
qoc
qyc
quy
qqg
riz
rqh
requ
srs
sbs
scy
sdp
taw
tst
tcc
tcp
tfm
txw
tfd
tnf
toto
todo
ubi
uco
ubb
veb
vro
wpp
wpl
wqm
wwo
wwq
xdw
xrj
yuq
##rix
##ramentalistfanchonut
##rowupblossomylixuf
##rmen
##rpartbulkyf
##service
##nos
##iex
##yet
##lem
##lock
##hen
##kills
##wid
##wish
##wings
##mms
##mile
##gel
##gay
##7ed
##7cd
##712
##723
##7i6
##4less
##4uk
##423
##42t
##622
##6ft
##6kz
##6u6
##6c4
##5fj
##53s
##2ip
##2ts
##2bp
##2wd
##2c4
##panda
##020
##8xt
##8cz
##8kz
##3ab
##3tv
##3bx
##3i4
##1ik
##1ob
##1up
##1od
##1iq
##1yt
##1cv
##1xv
##1dz
##1jx
##1dg
comb
commerce
##etalk
##enis
##enius
##oriz
##arde
##arid
##araf
##arak
##ic6
##iclub
##esen
netz
##isuiwcymao
##eding
##edog
rural
##iz4
##izona
##as6
##asic
##asiugkeq
##chand
##osite
##osure
##ysearch
##ysolutions
##em6
##emps
##emme
##utom
##aved
##agel
##ingapore
##leap
##deep
##oportal
##epan
##essel
##oger
##idin
##up4
##acas
##acos
##enso
##qoe
##qoa
##ov8
##otas
##ecat
##ecos
##ecall
##rata
##inee
##imus
##impl
##imusic
##imulator
##ucai
##igq
##igne
##iv8
##lubs
##eweek
##azg
##azines
##ehab
##uvoo
##ufan
##mafordlinnetavox
##maanerraticallyqozaw
##eb7
##yl1
##oh7
##oh6
##ippo
##mgorcajanunal
##mgtallulahavaw
##ksuiwcymao
##wyi
##wyeoya
##egallery
##left
##andmore
##ibar
##attack
##ugih
##cents
##ologi
##pray
##dsdsholapet
ccm
##erepair
chest
chim
chevr
##oyal
trin
##ppe
##sno
##qb4
##ihz
stm
pld
mech
itech
##psfox
##psdsholapet
usm
##ldy
##ynz
##coup
##crete
##phc
##io2
##io3
##terra
##ejob
##csy
##lsm
##wsu
##echina
##gsuiwcymao
artp
##yhi
spir
spect
auo
##dri
##dragon
##mpe
##what
##krz
##uzb
##vsdsholapet
gray
grupp
escap
##kpi
tvb
tvx
##ozf
##ozr
##ozx
##flip
##qv4
##anten
acu
##24f
##24g
##245
##zsb
##wjz
##dfy
clan
clim
##xtf
##cvd
##ckq
##55d
##55z
##55p
unr
unp
##66r
##66h
##djz
##djc
##eeiq
##mxu
##cxo
##bjm
##33d
##tvu
##nve
##yki
##447
##nty
##zhx
##llq
##llv
##compar
##jrk
##36b
##npf
##zzr
##zza
drm
##18q
##18c
##16n
##zjf
##zjc
##ltk
##kwo
ase
##78s
##78v
enk
##jvx
##34a
##34v
##34g
##343
##14z
##xrq
##xrk
##xrw
##xru
##xrp
##qzq
##qzw
##vrx
##13r
##13j
##qdo
topclub
##cae
##jtg
##jpq
##jpv
round
##apply
##qga
##auu
##21b
##achine
isf
##eo7
##vtj
##58r
##ustice
##mye
##myip
##bxm
##gzn
##inkel
##bfm
##28l
##28m
huang
##38t
##383
##xnf
##xng
##ztz
##zpb
##jlx
##jlv
freew
freeg
##252
##749
##zrj
##heater
##ystal
##slist
##27b
##31b
##31k
##enga
elv
##zny
##51z
##46n
##annon
##fzb
##ui8
onthew
ntb
glow
##32f
quad
##lhw
edel
##45r
appli
applic
##1sj
zhang
rrp
csf
csv
##2pg
##2rp
##2hg
agen
##berlin
##1x5
##1lf
##1lg
##1l5
##85h
##atcher
carg
bjd
osf
##3pg
##1f4
##2j7
##3lz
##3l8
##2b4
leader
parc
##4pc
tpb
ksb
##atori
servebeer
##ipse
buyt
dlg
##1g6
##eleon
##1c5
##1w5
##1q6
keyst
paid
##8f7
elekt
expect
##viewer
##erpool
##general
repl
strength
booking
##iscover
##aprint
coral
belle
computers
delh
knig
fsd
##ebrand
##arling
silk
svet
photograph
##acounty
legend
##efront
ihat
##urger
##investors
classical
##gamers
##aresearch
##compass
##casting
curry
choice
angels
##commercial
##environment
cabinet
philosoph
brooks
##lighting
##uilder
##classic
##orderbrides
##urkiye
teacher
phpbb
##zenia
housing
##contact
##ijuana
thought
unicef
##trainers
frankfurt
clipart
olympic
monclerj
##occerjerseys
##cientific
captain
brookly
sarkarires
##strategies
gestion
garagedoorrepair
##automation
izmir
##oregon
highland
synthroid
hockey
##thewson
adidass
stuttgart
##loroqu
134
164
220
490
6e
6o
654
700
acy
afp
abz
ahm
bcl
bgf
bsk
bcg
bfm
bfc
bnc
brick
cric
cbr
cai
cqm
cqd
dick
dich
eia
eiy
eyk
enb
fes
fdg
fxf
fabr
fellow
furnitur
gian
gqs
gcy
gwg
gong
gmc
guns
gstatic
hoh
hyx
hkb
hqn
hjb
ily
izh
igw
jil
jkb
jobb
jdu
juj
jkh
jcf
jung
jjq
jason
kgd
kern
kara
karl
ldu
lfm
lbm
mbs
mdp
mwg
mkm
mba
nho
ncb
nwt
nmd
nbd
njf
nxf
nnc
oim
oqs
ouy
pia
pbg
qon
qwy
qoy
qyk
rle
rkt
rong
rjf
rxf
rally
syq
slt
skg
srl
seph
tis
tla
tix
tof
tdu
tbd
tbg
tnd
targ
uey
vij
vqh
vardenafil
wqo
wea
wuq
wqg
yong
yacht
zum
zdm
zrj
##firm
##byt
##eers
##nap
##iuj
##ield
##iario
##auc
##lun
##hab
##human
##ofo
##kala
##tag
##tree
##voy
##was
##mok
##moms
##7dd
##7gx
##727
##zap
##cob
##6wh
##5mg
##5kj
##5gx
##5a4
##2js
##2tl
##2vp
##2sl
##2i7
##pit
##pix
##poker
##012
##3od
##3ps
##3mf
##3dj
##3hh
##3vp
##3sl
##1et
##1ch
##1ov
##1eh
##1cb
##1gg
##1mj
##1dj
##1bj
##1np
##1bh
##1lr
##1pv
##1bz
##omic
##oming
##omart
##inov
##inns
##erre
##erformance
##alflife
##orin
##arine
##atra
##atino
##icion
##onda
##isport
##lask
##laide
##edot
##itian
##itto
##iz8
##asal
##ilian
##ilib
##el5
##elet
##eleph
##elizabeth
##yshow
##emic
##foa
##avip
##avision
##agora
##amient
##ingfor
##urer
##ureau
##ol1
##olux
##de4
##deff
##reel
##ad4
##adon
##adaily
##opper
##ik6
##eprice
##ho6
codep
county
##og5
##ogos
##idents
##fords
##obiz
##ow7
##owen
##owang
##qo2
##ecords
##ap4
##apid
##aproject
##imin
##uc6
##stic
##states
##stones
##iveb
##lues
##azf
##azc
##az8
##oxz
##mau
##hren
##hrvinskycattederifg
##hrllaabettingk
##ohub
##kbz
##ocin
##ocorp
##umat
##umepictom
##ipon
##ipol
##ofthe
##itydevonianizuwb
##ksellefrictionlessv
##trax
##egel
##ersupport
##akfordlinnetavox
##akanerraticallyqozaw
##ibox
##ologic
##format
##ubon
##uble
##evac
##evers
##enheim
##efestival
##orca
##yplace
chir
##dua
truy
tradem
##span
##spac
##shed
##shome
pwr
##ijie
##qbz
prh
prm
prp
##eyfordlinnetavox
##eyanerraticallyqozaw
planning
meij
##xxe
##crowd
##brit
##ygod
##yguiwcymao
##bse
##bsu
##wsz
##gfih
##hsfox
##hsdsholapet
arqu
##gran
shre
allh
##qr6
##gno
##ghana
irc
##qual
##quoc
##quang
##quared
##fri
##xsa
##xsfox
##ezr
##ezv
##ezm
##uzq
##uzw
##uzj
##qf7
##wv6
##11e
##wrz
##ozj
##mbu
##qxa
##qxu
##wp6
##kkenhancedysb
##kkmachuslazaroqok
##onlinem
##mfe
##ellis
##dve
##cpi
##zsv
##cfa
##ptw
##wj4
##kf4
##cve
##gva
##77b
##77c
##cki
##wbu
##cxa
##cxu
##ansi
##hhj
##33x
##332
##tvl
##zhb
##llj
##bvr
##22s
##227
##22z
phd
phx
crc
crac
##nhe
##36j
##npu
##zzi
drd
##illust
##wg8
##endid
##18l
##xjg
##nbx
##qm7
##16w
##160
##fbu
##kdz
##zjn
##zjg
##cmz
##qw8
##qwiq
##fhq
##78t
##783
##dwus
##jvm
##fxm
##fxg
##fnw
##34x
##34z
##14d
##14r
##142
##bpj
##bpc
atar
##czl
##17w
##17j
##kga
##13x
##13w
##tpg
##56b
##virg
##23f
##232
##21m
isl
isg
##qyeoya
##vpm
##vpg
##vtq
##athedral
##58t
##jxw
##weight
##inker
##28v
##280
skech
skysc
##jnx
##dgk
##26r
##26l
##xno
##25v
##doe
##doq
##35t
##fgy
##68h
##68t
##armour
##pnw
##54g
##272
##beam
##yeong
##hxb
##hnw
eln
##51r
##46h
##eshopping
where
forbes
##dyu
msf
##57t
##xwc
##1rv
quart
##bwq
##etran
##lhd
##fdk
##1sq
##1s6
##1pf
##1hq
##2pf
##87s
##3rh
##2h5
##2sj
##1xb
##1x7
##1vk
##84s
mono
nrn
##3tz
##ercare
##ercury
carpet
##ljerseys
##2v7
##3hy
##3hz
##ethost
gsj
##5tj
##a6s
allianc
##2b6
##4sv
##ariat
##3d5
##laborat
jtb
##automotive
##7hz
##qaiq
airs
airsoft
airjordan
lrl
##1m7
##ennial
psic
##1w3
jsx
indonesia
europa
manhatt
##ecredit
heaven
##arris
hoch
resort
##5f4
antib
##1o6
intelle
biod
##ecurities
##2y5
chrome
dominos
playc
##5y4
cambridge
##otein
descar
context
registr
##equake
musee
muscle
##domains
##umbai
savv
2019
dailyc
dogs
lawyer
howard
torut
popular
##investing
cosmetics
johnn
shared
##immigration
##compare
bmcp
copy
copper
retro
discov
montblanc
storage
##engineers
##facil
##identity
coachfactory
arabic
ready
##enjoy
circuit
dotnet
##yplanet
virus
truer
major
yamaha
##radienton
##edicine
single
##rehab
##startup
##developers
alexand
southwest
process
##gorod
##charge
whole
voyage
##yboost
hilton
##concept
question
weekly
charlott
britann
coastal
supplement
speech
useinsider
##replik
redirectme
##argentina
toshiba
pandoracharms
oriental
canadianonlinepharmac
300
5o
95
988
axx
bap
bkl
byr
bfw
bfd
binar
batter
cqo
cdd
cerv
cbt
cqy
cats
ddu
dsn
dcd
dfg
dzn
dxw
dsc
dfd
eay
ege
edh
eee
eaq
ewd
fay
fail
fbc
ffd
feu
finn
fift
gost
gls
gfx
gkg
hod
huf
hms
hands
hebe
iuu
igm
juv
jax
jct
jgh
jelly
kqw
kult
luf
ldm
ldc
lect
lzx
lvf
lnk
lider
mrm
madr
nbi
ncl
ngs
nra
nfc
niger
ols
pug
psn
pitch
preg
qky
qay
qdh
qrr
qcm
qwd
rey
rang
rfm
rsl
sqo
sfs
szs
sdx
sqw
sage
sino
seller
taf
tcl
tick
tjf
uay
uvv
uyk
uqw
uqg
vax
vyw
vill
vpj
vrb
vanguard
wio
whs
wuy
wyy
wilm
xde
xdu
ywy
ycy
ytt
ynj
yqg
yqy
ywc
yumm
zin
zle
zod
zyg
##rom
##rot
##rellefrictionlessv
##racing
##ieq
##iyh
##i24
##aaw
##aug
##xchange
##like
##kang
##tax
##via
##myf
##gom
##7ad
##7sr
##cia
##4ay
##4cc
##4ms
##676
##5vs
##5sr
##2uv
##2ww
##2sh
##2nj
##2u6
##pur
##pills
##8bj
##833
##8mz
##847
##82z
##81w
##3ix
##3eg
##3yr
##3ez
##3db
##3tl
##3fv
##3bh
##3dz
##1rg
##1il
##1uv
##1ex
##1mg
##1ts
##1ak
##1jj
##1ls
##1gl
##1qt
##1df
##1nv
##1vh
##omix
##omac
##omarketing
compt
##incom
##inthe
##eram
##etino
##enko
##alaw
##arina
##aref
##onie
##itive
##asys
##asot
##asant
##chik
##os6
##osmen
##elix
##aben
##abag
##abuy
##ysex
##emem
##emod
##emodel
##utwv
##foi
##fo6
##avka
##agam
##amuseum
##legen
##urdu
##urbo
##olica
##awiki
##aworks
##deellefrictionlessv
##reator
##ad6
##adirect
##ulls
##opet
##opular
##epages
##ixing
##hoamentalistfanchonut
##hoowupblossomylixuf
##ioner
##ob6
##obuy
##ensus
##otica
##ecal
##ecapital
##irma
##estra
##estars
##imoveis
##igame
##stocks
##lua
##lugg
##eq7
##azer
##ehat
##ehead
##ebin
##ebit
##ebeauty
##yd5
##yxz
##ajobs
##bibl
##ofun
##ofilm
##oficial
##traders
##egol
##egre
thir
thailand
##anderson
##ug3
##ubz
##ub8
branch
##ev4
##evel
##iqz
##wwa
##ycorp
##yzr
chief
##shirts
##ahut
##ahub
frt
frugal
stap
stores
prt
itc
##ux4
##yburch
##xxxv
nlc
##crim
##crunch
##term
##yti
##ej4
##ejacket
##qq4
##lsy
##ws4
##wsuiwcymao
##yri
arbe
##grup
##ortium
##cye
##ttz
shl
shap
shelter
spain
##ghef
##ghiep
##khan
##qu6
##88j
##qpz
gros
##gga
##gg4
##xpa
##ue6
##wri
##mbz
##flights
##wxz
anp
##mjz
##mrz
##mtz
##mt4
##anty
##anted
##mhe
acf
##kve
##kvz
##zsd
##zsl
##asty
##astan
##astudio
##dfw
##idex
##wfz
seks
##77l
##cka
##wba
##55r
##55v
unh
##ainst
##dxo
##boe
##33f
##334
##ntm
##zhn
##zhz
##ishan
##22d
##22h
cry
##36f
##36s
##zzl
##zzorcajanunal
##zztallulahavaw
##fjl
##fjm
##18x
##xjy
##ackaging
##cuits
##cg6
##qmiq
##16e
##xvn
##fbe
##fbp
##gdi
##zjd
##btz
asics
##fhm
##78l
##dwm
##dwell
##gwiq
##gwiugkeq
##jvk
##fxo
##fxu
##fna
##fnc
webd
##34n
##34m
##34p
##bpo
beam
beacon
##kae
##czq
##17f
##172
##kgroup
##563
##ca2
##jpd
##appiness
##21x
##21c
##jhn
##jhg
##jhc
##moe
isc
##qyo
##qy6
##iu4
##58j
##58c
##arse
##ustic
wsj
##lpj
##we4
##ichina
##icheng
##wzr
##wzk
##48h
##48t
##38s
##38a
##38j
##26d
##26s
##26n
##zpv
##25b
##259
##35h
##35v
##35c
##35p
##74f
##74r
##745
##jbd
##zrn
##zrt
exit
##keiq
##vlr
##54j
##zxw
##ystation
##27z
##hxy
##37d
##zna
##fclub
##feet
##51j
##46s
##46p
##annah
##annabis
##aeiq
hrb
##lrb
##57v
##1rl
##1rh
##1rz
##1r4
##etri
##etrail
##etracker
authent
emu
##45j
##45z
##453
##86x
medial
##1hz
##1h4
interview
interactive
interactiv
##2pk
##2pz
##871
##ordonn
##2rx
##2rc
##riage
##1x6
##1vb
##1l2
ttc
##85b
newton
newyork
##xfy
##2zg
##itsolutions
##3zg
##ollins
##3vg
##3v6
hpm
##1b5
neigh
minh
vvq
dpd
lean
##atrol
##atrans
servequake
##2d6
bvw
##1m8
##1k4
##cares
tlc
euroc
eurek
##observ
telem
##4x7
etc
##proud
##iami
##escap
cloudfront
antic
##1o7
##1o8
##iedu
##3w4
upc
##metro
youp
youc
##ibros
##5d7
bigt
smarter
##juice
caps
##genie
milan
military
##3e5
##2o6
##7y5
thebig
##ladesh
##6y4
multic
records
##sportal
prex
80ad
skype
seraph
##optical
##equotes
archives
##ambers
##gerie
##embly
officialauthentic
remote
animation
breaking
##employ
thereal
##imming
hyip
##winery
nativ
investor
immo
espac
##iplus
astron
renew
location
passport
rockw
privacy
##emyessay
##overseas
mitula
ultimate
toyot
claim
inspiration
athens
xiaom
trending
automation
gifts
##waters
##examiner
effect
edgekey
licens
bibliot
destin
##objects
rakuten
##fantasy
quran
##aradise
strategy
serveblog
architecture
##justice
##atroyd
spanish
arctic
nintendo
pearson
servehalflife
leipzig
199
148
349
448
7e
a2z
aster
brat
byd
bobb
bqp
bmf
bert
bfz
bby
battle
cpt
cuq
canar
daj
dollar
eyq
ekw
eshop
foo
five
fjf
fxd
fxc
gff
gmw
ggc
getty
hup
hjf
hnd
hacker
irg
iro
iff
ild
idn
idh
idb
iii
ifp
jom
jcc
jlv
joe
kuy
kwg
kons
kool
kkm
kitt
lus
lir
lite
lend
lord
lnd
legr
mins
mbt
merk
madrid
nmn
nbm
oen
ola
oka
oman
oqc
pst
pev
pij
pcf
pcv
pfd
padd
pinterest
qcg
rch
rej
rqp
risk
sdb
sll
sqm
syy
sgm
toph
tsp
tcr
tuz
tcn
twt
tbq
txd
uth
upr
vost
vari
wiq
wyk
wcm
wqd
wings
xit
xoj
xgf
xdg
yqu
ywg
ykd
ykw
ykg
york
zde
zdu
zfw
zxw
zjw
##fusion
##bec
##iord
##aky
##yip
##lor
##high
##qian
##kim
##kcc
##wag
##matic
##7dh
##7rr
##7c4
##4it
##4hp
##4rp
##6c6
##5ky
##5rs
##5gn
##5mf
##5xh
##5bv
##5lj
##2rg
##2ig
##2uz
##2xh
##2gv
##2tp
##2jx
##2pv
##2a5
##plac
##publishing
##83z
##3om
##3st
##3ml
##3ak
##3ef
##3mm
##3nr
##1ic
##1is
##1it
##1ot
##1uc
##1uf
##1ns
##1ef
##1ah
##1ht
##1ct
##1qp
##1fs
##1kp
##1mr
##1db
##1gb
##1fj
##1vp
##1jl
##1fz
##1lx
##900
##918
##inbox
##anan
##eret
##eradio
##etos
##etips
##alin
##or5
##arot
##arry
##atour
##ativo
##icient
##onst
##onnet
##es7
##eser
##edem
rum
##rgradienton
##asol
##asco
inm
##ilor
##ilife
##osamentalistfanchonut
##osowupblossomylixuf
##ospartbulkyf
##us4
##elik
##elux
##elong
##eliving
##emz
##emob
##emyp
##emind
##emovies
##utuv
##amac
##amap
##amera
##amoto
##olla
##dean
##deport
##adir
##oporno
##epot
##lye
##essemitismgavenuteq
##idesign
##ac6
##acor
##acol
##acad
##acinalcentricem
##aciologistbikerepil
##acrsensinaix
##acsikathrinezad
##actions
##acycline
##ov6
##ovin
##oters
##otimes
##ec4
##ecent
##apit
##apedia
##applic
##af4
##afan
##impress
##uc4
##ucorcajanunal
##uctallulahavaw
##odor
##iv6
##yping
##ehall
##ehunt
##arti
##ydays
##kbooks
##ocap
##yw8
##uw8
##ip2
##iple
##iporn
##expl
##mgroup
##of8
##ofile
##ks6
##ksamentalistfanchonut
##ksowupblossomylixuf
##kspartbulkyf
##ia2
##thi
##thin
##trim
##eget
##akow
##akov
##andle
##ug7
##uban
##evod
##evilla
##ssi
##pr8
##printer
##ds7
##laze
##ederation
ccv
cckb
##yzone
chs
trx
traders
pwc
fragr
##mend
##ihealth
stb
pra
pris
prow
##ey8
plt
measur
itv
##ff8
suj
usj
##ybar
##ukamentalistfanchonut
##ukowupblossomylixuf
##ukmen
##ukpartbulkyf
##ukri
##jj6
##cl6
##brid
##io7
##csu
##cdns
##angr
##wso
##klz
##mmorcajanunal
##mmtallulahavaw
##yr7
##cbank
##gles
##uhz
##jsidablyhoosieraw
##jsalitydevonianizuwb
##jsrasildeafeninguvuc
irv
##bba
##quis
##xsdsholapet
##ezf
##ezk
##ezc
##qpi
##uzc
##fsa
##fsfox
espr
##qfa
##qfz
##xpe
##11v
tvr
##ce7
##iyang
ana
anx
anj
##wp7
acg
##24d
##24x
##ellc
##ellan
##astyle
vnh
##kfz
##dfu
##gbu
##wfi
##xt7
##ckz
##55j
##552
##oui
##djy
##djo
##mxe
##005
##ainform
##33m
##ertv
##tlf
##tlg
##uq8
##yku
##ykz
##44r
##44h
##ntu
##ntc
##zhv
##yq4
##lln
##22x
##22v
##jrw
##meister
phar
cran
croc
crash
##36t
##npe
##npy
##zzn
##zzo
drh
##njo
##illery
##undi
##xje
##xjl
##16l
##xvc
##fbg
##rrk
##intage
##gdo
##btb
##kwi
##kwz
##fhd
##fhe
##dwo
##gwi
##jvc
##fne
##fnu
##kmepictom
##kmarket
##15f
##15d
##15g
##15p
##aair
webnode
##bpq
##xrf
##mwiugkeq
##qzr
##17k
##13a
##kzr
##kzk
##ulton
##hlj
##mdi
oracle
##mzl
##56n
##56x
##56g
##564
##onga
##loq
##loor
##bnq
##bnu
##jtq
##jpn
##jpg
role
##qgz
##23n
##23j
##23p
idg
##21n
##jhd
##jhq
##dzb
##iu8
##qk8
##58l
##myo
##bxn
##weu
##bfd
##48c
##vhj
##76s
##xnd
##25l
##25j
##zlb
##zlv
##qe8
ptk
##actual
##74j
##2030
##68v
##68g
##687
##vlm
##pnq
##heid
##27c
##27p
##beu
##pxd
##31t
##31v
##37r
##51d
##51h
##46t
why
##fwc
##47r
msb
msu
##57n
##105
globe
##dienst
##bmu
##uaire
nouv
ilk
##byu
##32r
##32j
##32c
##1rm
##1r3
##bwk
autog
automotive
ltc
##1tx
##1tw
##1t4
##nxd
emer
##45x
##45p
##fdq
##864
##1sz
rrm
##1h8
##2p5
##3rb
##3r4
##2tx
##2t7
agenc
##3sf
##3sj
##84r
monet
##1lw
nrh
##3t4
##ercity
##adep
##75j
##1jg
##1j7
caritas
##xfq
##1n7
##espe
##lassic
ssf
jrn
##ethis
swim
##i4x
gsv
##3zf
##3j8
mood
##3l6
neuvoo
##2l6
##i5v
minis
hhd
shopify
sait
parents
##5pz
##4pz
##c69
lln
llc
reddit
##6sj
servecounter
artof
##3nq
##osports
##ennes
##7rd
psi
jsb
poly
indians
##1q5
schule
##voices
##7b6
##2w7
baid
##2k6
cloudflare
antim
##3g6
yous
bigb
##5g8
##4y8
##movement
purple
##instein
khab
khabar
chron
mtn
##6m5
andro
##3o5
advis
advant
taiw
koch
westus
turbo
turkey
##omson
safer
##ebrain
##apeut
sciences
##utting
##uzzle
##value
thedigital
landkreis
heritage
theworld
##ulsa
gadgets
madison
promotion
##casin
java
scrap
docs
russell
##across
addict
##hodox
albuterol
espn
##payments
electron
##garage
officeapps
blacks
ashle
##mommy
taxi
##database
##fortune
spectr
philip
##transfer
##provider
production
##eminecraft
##collective
##americas
##lifestyle
##oglobal
chauss
alpine
dealer
victori
scotland
##contin
##chlor
broadway
##dresses
rogers
converse
atomic
yokoh
##racial
##ublisher
nursing
britishcouncil
plugin
##flooring
##canadagoose
association
gabriel
hannover
glamour
henderson
intelligent
abercrombie
onthewifi
servecounterstrike
120
189
2ch
334
6a
774
8e
97
bion
biv
bkb
bks
bkk
bcp
bend
bxg
bitt
border
boutique
cey
cang
cdr
cue
ciy
cuy
cube
curt
curv
dess
dbi
dks
dbc
desh
dvf
dobr
ere
exx
emo
epx
faw
fip
fbi
fcd
fng
fxg
gde
gyq
gtm
glad
giant
hst
hax
hyg
hmm
hail
hbo
hels
hbd
hvf
hbk
heroes
ila
ihr
ivv
iiy
igo
icw
iqk
ibc
ifg
ipn
iuo
jks
jij
jsk
jfg
jfw
jnw
jnc
kma
kld
ktv
kmc
kna
kwi
kather
lom
lia
liq
lans
lice
mpp
mgw
mrc
mitr
migr
nst
nyp
nyl
nsh
nng
oqo
oeg
oaq
okg
oke
oko
pof
pcr
pkn
poj
pqr
pale
pvf
p2p
qio
qnn
qcy
qdt
qgw
qkg
quo
rla
rwv
rbd
rfc
rxm
sxs
tuk
twr
tmj
tmt
urs
uee
ugm
vdg
vitr
wpx
wilson
xos
xho
xfm
xbd
xxw
ycm
ywd
yosh
zla
zem
zing
zzv
zbz
##faq
##fact
##fuck
##bla
##ring
##raven
##restaurant
##aod
##audi
##yas
##yrs
##lett
##hut
##k12
##tre
##wolf
##journals
##myd
##mouth
##gin
##gjj
##7al
##7op
##7df
##7zv
##zar
##cable
##cycle
##43h
##6hv
##5st
##5qb
##5yb
##5bz
##5hv
##2ic
##2on
##2us
##2id
##2yp
##2yd
##2yw
##2um
##2rs
##2ek
##2sn
##2kk
##2hh
##2gz
##pric
##pak
##021
##8ah
##8uj
##8bv
##3og
##3eb
##3oc
##3sh
##3vv
##3gh
##3kh
##3wn
##3cx
##1un
##1ix
##1ax
##1dl
##1uw
##1th
##1eg
##1ug
##1yc
##1gf
##1kt
##1wr
##1wx
